<pad>	0
<unk>	0
<s>	0
</s>	0
▁t	-0
he	-1
▁a	-2
in	-3
er	-4
▁s	-5
on	-6
▁the	-7
re	-8
▁w	-9
ed	-10
en	-11
an	-12
at	-13
or	-14
▁c	-15
▁o	-16
es	-17
▁f	-18
it	-19
is	-20
▁b	-21
ar	-22
ing	-23
▁p	-24
▁in	-25
▁to	-26
al	-27
ou	-28
▁of	-29
▁h	-30
nd	-31
as	-32
▁m	-33
ic	-34
▁d	-35
id	-36
il	-37
▁and	-38
om	-39
ion	-40
le	-41
ent	-42
▁th	-43
ay	-44
▁re	-45
▁T	-46
▁n	-47
▁S	-48
▁A	-49
▁l	-50
▁C	-51
▁"	-52
el	-53
ro	-54
st	-55
ut	-56
▁.	-57
▁be	-58
▁g	-59
ol	-60
▁sa	-61
▁he	-62
ac	-63
ot	-64
ve	-65
ad	-66
ur	-67
▁M	-68
▁on	-69
▁e	-70
am	-71
▁I	-72
▁for	-73
ter	-74
▁said	-75
ig	-76
im	-77
ir	-78
ver	-79
us	-80
▁st	-81
ec	-82
▁is	-83
▁B	-84
et	-85
ow	-86
▁that	-87
ation	-88
ly	-89
▁The	-90
ill	-91
▁P	-92
▁was	-93
▁H	-94
ith	-95
▁wh	-96
▁at	-97
▁W	-98
ce	-99
ri	-100
ld	-101
▁with	-102
ra	-103
ort	-104
ers	-105
▁an	-106
un	-107
▁F	-108
os	-109
em	-110
▁con	-111
op	-112
▁it	-113
▁al	-114
her	-115
▁as	-116
ist	-117
▁N	-118
est	-119
▁D	-120
and	-121
ch	-122
ear	-123
▁R	-124
ul	-125
▁y	-126
ak	-127
▁ha	-128
00	-129
,"	-130
rom	-131
res	-132
▁1	-133
▁L	-134
igh	-135
ore	-136
th	-137
ag	-138
▁J	-139
▁-	-140
▁G	-141
if	-142
▁--	-143
ct	-144
▁are	-145
▁from	-146
ment	-147
ain	-148
pp	-149
▁U	-150
▁2	-151
ew	-152
▁pro	-153
▁com	-154
▁have	-155
ate	-156
▁his	-157
▁v	-158
▁O	-159
▁de	-160
▁ch	-161
▁k	-162
▁has	-163
▁E	-164
ts	-165
▁sh	-166
▁r	-167
od	-168
ies	-169
▁by	-170
ity	-171
▁not	-172
ice	-173
our	-174
."	-175
ack	-176
ast	-177
day	-178
▁say	-179
▁le	-180
out	-181
end	-182
NN	-183
ial	-184
art	-185
ia	-186
▁off	-187
ere	-188
gh	-189
ess	-190
iv	-191
▁ex	-192
um	-193
ee	-194
oun	-195
▁K	-196
all	-197
▁ab	-198
ud	-199
▁were	-200
port	-201
ab	-202
ould	-203
▁go	-204
oc	-205
ard	-206
ord	-207
se	-208
ust	-209
ight	-210
▁sp	-211
ant	-212
▁j	-213
ive	-214
▁af	-215
ok	-216
▁su	-217
▁pl	-218
rou	-219
▁who	-220
▁(	-221
ian	-222
ome	-223
ap	-224
qu	-225
ry	-226
cc	-227
ident	-228
ect	-229
up	-230
▁whe	-231
▁will	-232
▁had	-233
red	-234
▁this	-235
▁ag	-236
▁been	-237
▁her	-238
ber	-239
▁se	-240
ary	-241
ong	-242
ich	-243
ff	-244
▁after	-245
▁wor	-246
ost	-247
ell	-248
▁pe	-249
ide	-250
ge	-251
▁they	-252
ther	-253
ine	-254
mer	-255
▁but	-256
▁she	-257
▁year	-258
ie	-259
▁or	-260
▁about	-261
ople	-262
▁out	-263
▁St	-264
▁says	-265
▁In	-266
und	-267
▁res	-268
▁their	-269
▁cont	-270
ans	-271
▁ad	-272
ren	-273
▁people	-274
ep	-275
wo	-276
▁Ch	-277
▁we	-278
ous	-279
▁pol	-280
ated	-281
ub	-282
▁do	-283
▁cl	-284
▁acc	-285
ime	-286
ount	-287
▁un	-288
iz	-289
pl	-290
▁report	-291
▁att	-292
▁ar	-293
one	-294
▁Th	-295
▁inc	-296
old	-297
▁one	-298
ions	-299
ound	-300
▁200	-301
ru	-302
man	-303
▁ne	-304
use	-305
ict	-306
CNN	-307
▁He	-308
▁more	-309
▁offic	-310
▁int	-311
ence	-312
▁can	-313
ass	-314
ip	-315
▁up	-316
ake	-317
▁all	-318
ire	-319
▁you	-320
ik	-321
age	-322
so	-323
ace	-324
ild	-325
ations	-326
▁two	-327
▁rec	-328
per	-329
▁CNN	-330
▁dis	-331
own	-332
ib	-333
▁which	-334
▁new	-335
ure	-336
ally	-337
▁man	-338
▁V	-339
ors	-340
ates	-341
av	-342
▁over	-343
resident	-344
ail	-345
ite	-346
ign	-347
ond	-348
ran	-349
ose	-350
▁would	-351
▁comp	-352
ue	-353
ind	-354
▁other	-355
og	-356
ase	-357
▁me	-358
ree	-359
▁also	-360
eek	-361
▁im	-362
aw	-363
▁when	-364
very	-365
vern	-366
▁cr	-367
ish	-368
▁than	-369
orn	-370
ress	-371
enc	-372
▁mil	-373
hed	-374
are	-375
▁its	-376
ick	-377
▁bec	-378
▁told	-379
ile	-380
act	-381
▁per	-382
▁3	-383
esday	-384
▁govern	-385
ark	-386
ied	-387
arg	-388
The	-389
▁Un	-390
▁app	-391
▁kn	-392
ities	-393
▁fir	-394
iss	-395
▁Af	-396
oy	-397
ational	-398
▁Y	-399
▁official	-400
ved	-401
▁19	-402
ath	-403
▁Al	-404
ican	-405
▁It	-406
ach	-407
▁inv	-408
ited	-409
ical	-410
▁ev	-411
▁sc	-412
urn	-413
▁part	-414
▁them	-415
▁police	-416
▁into	-417
ood	-418
▁work	-419
ey	-420
▁kill	-421
▁sec	-422
son	-423
ob	-424
wn	-425
ings	-426
▁us	-427
ame	-428
rib	-429
▁there	-430
▁count	-431
ater	-432
▁him	-433
▁government	-434
tern	-435
ording	-436
▁fl	-437
ely	-438
▁ro	-439
ition	-440
orm	-441
ama	-442
▁en	-443
▁first	-444
ement	-445
▁years	-446
▁week	-447
ause	-448
ough	-449
ters	-450
▁time	-451
ince	-452
ade	-453
▁last	-454
istan	-455
▁some	-456
amil	-457
▁so	-458
amp	-459
▁tr	-460
▁day	-461
▁co	-462
▁no	-463
ult	-464
itt	-465
▁$	-466
▁call	-467
ang	-468
ck	-469
▁what	-470
▁qu	-471
▁An	-472
illion	-473
ens	-474
▁te	-475
000	-476
pt	-477
atch	-478
▁bl	-479
,000	-480
▁just	-481
land	-482
ike	-483
ash	-484
▁could	-485
▁pr	-486
reat	-487
uth	-488
▁milit	-489
pect	-490
▁act	-491
▁comm	-492
ink	-493
▁dec	-494
ook	-495
▁tra	-496
rid	-497
▁ser	-498
lud	-499
▁mon	-500
ife	-501
ons	-502
ubl	-503
▁again	-504
oll	-505
int	-506
fore	-507
du	-508
ah	-509
▁according	-510
▁Ob	-511
▁4	-512
vel	-513
▁pre	-514
▁hel	-515
▁grou	-516
▁am	-517
we	-518
▁New	-519
▁get	-520
ory	-521
▁any	-522
▁found	-523
uring	-524
▁child	-525
▁show	-526
▁Obama	-527
ov	-528
other	-529
▁includ	-530
uthor	-531
ents	-532
ier	-533
▁famil	-534
▁car	-535
▁und	-536
▁lead	-537
rough	-538
able	-539
▁rem	-540
lect	-541
ft	-542
ug	-543
▁Amer	-544
ious	-545
▁before	-546
▁attack	-547
way	-548
▁But	-549
rit	-550
ove	-551
ll	-552
▁ear	-553
▁did	-554
▁add	-555
▁three	-556
▁because	-557
▁stat	-558
▁world	-559
▁where	-560
med	-561
▁United	-562
eb	-563
ces	-564
▁spok	-565
urs	-566
vers	-567
ased	-568
ex	-569
▁min	-570
▁Mon	-571
▁under	-572
▁month	-573
▁home	-574
ance	-575
▁Is	-576
▁5	-577
▁air	-578
▁being	-579
▁plan	-580
▁Ar	-581
▁my	-582
▁help	-583
ced	-584
▁ra	-585
ital	-586
▁bet	-587
▁back	-588
raq	-589
▁country	-590
▁sur	-591
▁conf	-592
ered	-593
au	-594
▁She	-595
▁Iraq	-596
ock	-597
▁mem	-598
▁president	-599
▁play	-600
▁wom	-601
▁war	-602
ss	-603
▁million	-604
gan	-605
oh	-606
eral	-607
ouse	-608
▁ind	-609
ina	-610
▁like	-611
ork	-612
▁killed	-613
▁against	-614
▁ph	-615
▁rel	-616
▁reg	-617
cer	-618
oot	-619
ating	-620
▁down	-621
ublic	-622
▁group	-623
▁officials	-624
▁des	-625
oss	-626
year	-627
estig	-628
▁President	-629
▁law	-630
▁bel	-631
ank	-632
als	-633
pe	-634
We	-635
alk	-636
rest	-637
▁during	-638
ency	-639
▁Tu	-640
▁statement	-641
▁military	-642
uthorities	-643
▁supp	-644
ourt	-645
ged	-646
▁family	-647
▁spokes	-648
ix	-649
▁fe	-650
▁death	-651
cent	-652
▁inter	-653
▁since	-654
▁if	-655
▁near	-656
ribut	-657
orth	-658
ather	-659
▁made	-660
▁ins	-661
▁ret	-662
▁cons	-663
▁6	-664
▁most	-665
aking	-666
▁through	-667
az	-668
▁now	-669
▁only	-670
any	-671
ph	-672
▁Tuesday	-673
▁inf	-674
▁know	-675
ines	-676
round	-677
▁On	-678
outh	-679
▁our	-680
ton	-681
▁ter	-682
ty	-683
ning	-684
▁want	-685
▁med	-686
▁Mar	-687
▁how	-688
ool	-689
▁At	-690
led	-691
▁rele	-692
ven	-693
▁Sh	-694
▁vi	-695
riday	-696
▁state	-697
▁Friday	-698
▁end	-699
▁Z	-700
ward	-701
▁Monday	-702
ned	-703
▁cap	-704
edn	-705
ednesday	-706
▁em	-707
▁Ind	-708
riend	-709
▁Wednesday	-710
ful	-711
▁news	-712
▁reported	-713
▁def	-714
ble	-715
te	-716
air	-717
▁investig	-718
me	-719
▁»	-720
▁four	-721
ica	-722
▁Wh	-723
ives	-724
▁may	-725
▁ass	-726
bers	-727
ursday	-728
▁Thursday	-729
▁charg	-730
▁Pol	-731
used	-732
▁arrest	-733
▁fin	-734
▁children	-735
ody	-736
ave	-737
les	-738
atur	-739
It	-740
erson	-741
ists	-742
▁Re	-743
▁gu	-744
rug	-745
▁po	-746
▁ref	-747
▁many	-748
hen	-749
▁En	-750
alth	-751
min	-752
▁bu	-753
ister	-754
ants	-755
▁take	-756
▁think	-757
ets	-758
ared	-759
ting	-760
▁sus	-761
▁prov	-762
con	-763
row	-764
hes	-765
▁those	-766
▁bo	-767
▁Watch	-768
▁percent	-769
▁way	-770
▁need	-771
▁And	-772
ized	-773
▁Cl	-774
▁rep	-775
▁Sund	-776
▁very	-777
istr	-778
urity	-779
▁make	-780
gr	-781
oth	-782
▁tri	-783
▁States	-784
▁Sunday	-785
ternational	-786
omb	-787
uss	-788
ween	-789
aj	-790
▁don	-791
▁10	-792
▁your	-793
▁miss	-794
ise	-795
▁Afgh	-796
▁look	-797
ms	-798
▁between	-799
ai	-800
ights	-801
▁long	-802
ron	-803
▁ann	-804
▁imp	-805
▁20	-806
enter	-807
ened	-808
tain	-809
ision	-810
▁belie	-811
▁still	-812
ual	-813
imes	-814
ving	-815
▁iss	-816
anc	-817
▁Afghan	-818
▁ac	-819
iff	-820
ecut	-821
▁life	-822
▁stud	-823
..	-824
sh	-825
▁sm	-826
▁every	-827
duct	-828
ops	-829
▁op	-830
▁head	-831
ands	-832
▁including	-833
▁Pak	-834
▁public	-835
uch	-836
▁authorities	-837
▁own	-838
ower	-839
▁Brit	-840
▁high	-841
artment	-842
io	-843
▁going	-844
▁while	-845
chool	-846
ret	-847
rew	-848
alif	-849
ember	-850
▁pass	-851
▁Le	-852
ush	-853
▁Pakistan	-854
irl	-855
ross	-856
ene	-857
▁site	-858
▁7	-859
▁prot	-860
▁called	-861
els	-862
ins	-863
ger	-864
▁set	-865
ible	-866
▁vict	-867
▁second	-868
▁should	-869
▁friend	-870
▁resp	-871
irect	-872
▁then	-873
aturday	-874
▁contribut	-875
elf	-876
ull	-877
▁eff	-878
▁elect	-879
▁bro	-880
▁care	-881
▁Saturday	-882
osp	-883
ics	-884
▁inj	-885
olog	-886
att	-887
▁Mc	-888
▁oper	-889
ims	-890
▁fire	-891
aren	-892
ured	-893
ility	-894
▁spokesman	-895
▁fil	-896
▁Car	-897
▁court	-898
▁aff	-899
▁tro	-900
▁sent	-901
vi	-902
▁former	-903
▁disc	-904
lear	-905
▁person	-906
▁For	-907
▁Sp	-908
ense	-909
▁NE	-910
▁even	-911
▁case	-912
▁died	-913
ments	-914
▁start	-915
▁team	-916
▁Iran	-917
▁They	-918
▁around	-919
▁NEW	-920
▁see	-921
▁fac	-922
▁Afr	-923
pected	-924
▁ask	-925
▁Police	-926
ures	-927
▁loc	-928
▁left	-929
ians	-930
▁camp	-931
ale	-932
augh	-933
▁num	-934
ness	-935
▁days	-936
▁remain	-937
▁br	-938
▁sl	-939
xt	-940
ner	-941
▁run	-942
▁viol	-943
▁American	-944
its	-945
▁sign	-946
▁trans	-947
com	-948
ison	-949
ollow	-950
▁8	-951
▁happ	-952
▁well	-953
▁bus	-954
read	-955
▁city	-956
▁det	-957
▁sever	-958
▁contin	-959
▁Jack	-960
▁company	-961
ves	-962
▁return	-963
▁five	-964
▁Min	-965
▁win	-966
▁9	-967
▁Fl	-968
▁sy	-969
▁contributed	-970
vice	-971
eth	-972
▁another	-973
▁exp	-974
▁sold	-975
▁South	-976
ted	-977
▁tak	-978
▁recent	-979
▁As	-980
ason	-981
ospital	-982
uman	-983
ued	-984
iel	-985
ues	-986
▁Joh	-987
▁night	-988
▁alle	-989
iam	-990
ror	-991
▁men	-992
ech	-993
▁school	-994
▁direct	-995
▁Ab	-996
ived	-997
my	-998
▁took	-999
der	-1000
▁vis	-1001
▁members	-1002
▁hop	-1003
▁good	-1004
app	-1005
▁leg	-1006
▁diff	-1007
▁Bar	-1008
uc	-1009
▁such	-1010
rat	-1011
ular	-1012
▁mar	-1013
ief	-1014
conom	-1015
▁area	-1016
order	-1017
▁Com	-1018
▁used	-1019
▁six	-1020
aliforn	-1021
eep	-1022
▁pop	-1023
ivers	-1024
▁security	-1025
▁follow	-1026
▁least	-1027
▁women	-1028
▁health	-1029
side	-1030
ired	-1031
▁York	-1032
alifornia	-1033
▁Eng	-1034
▁sub	-1035
▁'	-1036
▁drug	-1037
ling	-1038
▁try	-1039
▁much	-1040
▁Ge	-1041
▁does	-1042
▁Fran	-1043
▁Afghanistan	-1044
osed	-1045
▁gen	-1046
▁De	-1047
▁California	-1048
▁John	-1049
▁199	-1050
▁ext	-1051
▁talk	-1052
ley	-1053
▁though	-1054
▁test	-1055
ivil	-1056
rist	-1057
ait	-1058
▁dep	-1059
ange	-1060
▁char	-1061
ON	-1062
▁expl	-1063
ative	-1064
▁rece	-1065
▁next	-1066
ober	-1067
oney	-1068
ever	-1069
▁econom	-1070
Th	-1071
▁Pro	-1072
▁announ	-1073
▁support	-1074
▁find	-1075
▁put	-1076
▁Web	-1077
▁Dep	-1078
iving	-1079
ution	-1080
ury	-1081
ices	-1082
▁par	-1083
▁same	-1084
ages	-1085
ral	-1086
over	-1087
▁gr	-1088
▁Col	-1089
▁polit	-1090
▁ve	-1091
▁Jackson	-1092
ederal	-1093
▁We	-1094
earch	-1095
▁place	-1096
hip	-1097
ism	-1098
hern	-1099
▁contro	-1100
to	-1101
▁House	-1102
▁poss	-1103
▁fight	-1104
▁later	-1105
▁troops	-1106
▁che	-1107
iness	-1108
ific	-1109
▁spec	-1110
▁hour	-1111
view	-1112
▁Mex	-1113
▁spe	-1114
▁office	-1115
▁cond	-1116
▁dead	-1117
ects	-1118
▁vot	-1119
▁rest	-1120
ept	-1121
▁cla	-1122
▁opp	-1123
ars	-1124
▁these	-1125
ior	-1126
▁str	-1127
▁came	-1128
▁dem	-1129
ploy	-1130
ax	-1131
▁Air	-1132
▁commun	-1133
uro	-1134
gram	-1135
ott	-1136
ries	-1137
▁water	-1138
▁hospital	-1139
til	-1140
ris	-1141
▁woman	-1142
▁exper	-1143
▁pri	-1144
▁girl	-1145
▁top	-1146
▁col	-1147
▁months	-1148
iver	-1149
▁som	-1150
ames	-1151
orld	-1152
▁record	-1153
ety	-1154
▁Ad	-1155
get	-1156
ke	-1157
▁15	-1158
▁build	-1159
ony	-1160
ject	-1161
line	-1162
enn	-1163
▁proble	-1164
ient	-1165
▁ob	-1166
ined	-1167
ention	-1168
▁arrested	-1169
▁forces	-1170
▁several	-1171
▁Geor	-1172
▁Mich	-1173
▁never	-1174
ajor	-1175
▁Rep	-1176
lier	-1177
▁released	-1178
▁known	-1179
▁right	-1180
▁concer	-1181
▁British	-1182
ators	-1183
▁power	-1184
▁$1	-1185
▁deal	-1186
▁number	-1187
▁pres	-1188
▁prom	-1189
▁civil	-1190
▁invol	-1191
▁12	-1192
▁both	-1193
▁past	-1194
▁charges	-1195
▁Som	-1196
ird	-1197
▁allow	-1198
▁Be	-1199
▁dri	-1200
▁turn	-1201
▁bre	-1202
▁phot	-1203
▁la	-1204
▁bomb	-1205
▁attacks	-1206
▁gl	-1207
▁Sec	-1208
ched	-1209
▁North	-1210
▁incident	-1211
▁taken	-1212
▁est	-1213
eng	-1214
▁come	-1215
▁del	-1216
▁best	-1217
▁ca	-1218
amed	-1219
▁meet	-1220
▁mov	-1221
▁sit	-1222
ann	-1223
▁vide	-1224
▁job	-1225
▁World	-1226
stem	-1227
▁hand	-1228
▁Department	-1229
for	-1230
▁youn	-1231
▁organ	-1232
▁mark	-1233
▁big	-1234
ified	-1235
▁Co	-1236
▁Jan	-1237
▁appro	-1238
▁...	-1239
▁fore	-1240
ington	-1241
▁Ger	-1242
▁National	-1243
orney	-1244
▁really	-1245
▁terror	-1246
▁post	-1247
▁far	-1248
▁saf	-1249
ually	-1250
▁open	-1251
ico	-1252
▁11	-1253
▁Sc	-1254
▁Con	-1255
mail	-1256
▁money	-1257
gency	-1258
▁Bl	-1259
▁pat	-1260
ffic	-1261
ute	-1262
▁region	-1263
▁Bro	-1264
▁inform	-1265
▁until	-1266
▁won	-1267
▁shot	-1268
lam	-1269
▁Gu	-1270
ately	-1271
▁Pe	-1272
▁saying	-1273
▁sk	-1274
▁hom	-1275
ple	-1276
▁early	-1277
▁ago	-1278
▁use	-1279
▁sw	-1280
rael	-1281
self	-1282
▁beh	-1283
▁Ju	-1284
▁requ	-1285
▁Somal	-1286
pped	-1287
▁nation	-1288
ael	-1289
gin	-1290
▁program	-1291
▁move	-1292
▁cur	-1293
▁Russ	-1294
▁added	-1295
▁went	-1296
▁land	-1297
▁major	-1298
▁business	-1299
▁Dem	-1300
▁China	-1301
▁human	-1302
▁ident	-1303
▁prev	-1304
iers	-1305
imin	-1306
gy	-1307
▁Tal	-1308
▁ent	-1309
▁among	-1310
▁international	-1311
oon	-1312
ourn	-1313
▁mother	-1314
ministr	-1315
▁Euro	-1316
▁quest	-1317
stit	-1318
▁Count	-1319
oman	-1320
▁Israel	-1321
alf	-1322
▁Sen	-1323
▁May	-1324
▁great	-1325
ases	-1326
acy	-1327
▁plane	-1328
▁Ph	-1329
oci	-1330
▁lot	-1331
▁system	-1332
▁kid	-1333
ille	-1334
ending	-1335
▁travel	-1336
▁conv	-1337
▁without	-1338
ida	-1339
▁away	-1340
▁2008	-1341
▁real	-1342
▁crit	-1343
▁federal	-1344
the	-1345
▁whether	-1346
▁others	-1347
aly	-1348
af	-1349
ract	-1350
▁held	-1351
▁miles	-1352
uel	-1353
ruct	-1354
ways	-1355
▁One	-1356
▁Har	-1357
▁2007	-1358
ided	-1359
ished	-1360
▁few	-1361
ried	-1362
ection	-1363
▁Bush	-1364
▁agency	-1365
▁expected	-1366
ana	-1367
ised	-1368
by	-1369
ccess	-1370
▁seen	-1371
ides	-1372
▁pay	-1373
▁investigation	-1374
idence	-1375
▁There	-1376
▁susp	-1377
ize	-1378
ocrat	-1379
▁effort	-1380
thing	-1381
▁stop	-1382
▁18	-1383
▁Pr	-1384
ield	-1385
▁adv	-1386
▁hours	-1387
▁mus	-1388
▁jud	-1389
▁sing	-1390
ering	-1391
▁England	-1392
une	-1393
rent	-1394
▁Christ	-1395
urch	-1396
▁rul	-1397
▁appe	-1398
▁body	-1399
▁India	-1400
ashington	-1401
▁Europe	-1402
ball	-1403
▁All	-1404
▁cou	-1405
▁mur	-1406
velop	-1407
▁here	-1408
▁asked	-1409
▁Am	-1410
▁let	-1411
▁leaders	-1412
ele	-1413
▁keep	-1414
▁County	-1415
▁house	-1416
iban	-1417
ission	-1418
▁30	-1419
▁incre	-1420
▁national	-1421
let	-1422
▁got	-1423
▁Washington	-1424
oved	-1425
orida	-1426
secut	-1427
▁young	-1428
▁hard	-1429
▁wr	-1430
▁wife	-1431
▁reports	-1432
▁Ser	-1433
▁threat	-1434
▁media	-1435
▁visit	-1436
▁prison	-1437
▁Ang	-1438
aff	-1439
crib	-1440
▁Islam	-1441
▁information	-1442
▁hit	-1443
▁deb	-1444
oint	-1445
▁Clint	-1446
▁outside	-1447
▁No	-1448
▁gun	-1449
ially	-1450
▁main	-1451
▁Taliban	-1452
▁Dav	-1453
▁agre	-1454
▁occ	-1455
▁local	-1456
▁father	-1457
▁Florida	-1458
▁accused	-1459
▁That	-1460
ittle	-1461
▁began	-1462
ended	-1463
▁Se	-1464
ained	-1465
aign	-1466
▁hot	-1467
ests	-1468
▁Michael	-1469
pr	-1470
▁tell	-1471
urg	-1472
▁appear	-1473
br	-1474
ern	-1475
▁Comm	-1476
iversity	-1477
▁Clinton	-1478
▁hold	-1479
hest	-1480
cl	-1481
▁sex	-1482
▁believe	-1483
▁earlier	-1484
▁cer	-1485
This	-1486
akes	-1487
work	-1488
▁leader	-1489
▁boy	-1490
ience	-1491
▁each	-1492
▁Kore	-1493
▁charged	-1494
ator	-1495
▁Democrat	-1496
▁sim	-1497
orters	-1498
ization	-1499
▁too	-1500
ondon	-1501
aul	-1502
ump	-1503
▁es	-1504
go	-1505
▁shoot	-1506
▁cust	-1507
▁London	-1508
be	-1509
avy	-1510
▁differ	-1511
▁How	-1512
▁short	-1513
aughter	-1514
▁German	-1515
▁stri	-1516
cept	-1517
▁working	-1518
reen	-1519
ething	-1520
cess	-1521
AS	-1522
▁old	-1523
▁across	-1524
▁confir	-1525
▁crew	-1526
▁success	-1527
▁able	-1528
utes	-1529
osition	-1530
▁met	-1531
▁campaign	-1532
▁face	-1533
▁countries	-1534
▁train	-1535
▁International	-1536
ino	-1537
hel	-1538
▁clear	-1539
▁cor	-1540
▁times	-1541
▁announced	-1542
▁son	-1543
icted	-1544
▁didn	-1545
▁food	-1546
ones	-1547
aring	-1548
ler	-1549
▁av	-1550
▁fail	-1551
ili	-1552
▁coun	-1553
▁State	-1554
▁small	-1555
▁import	-1556
▁hist	-1557
▁Africa	-1558
▁along	-1559
▁capital	-1560
▁release	-1561
▁town	-1562
uary	-1563
▁feel	-1564
▁prof	-1565
▁season	-1566
▁Or	-1567
ague	-1568
▁violence	-1569
▁Tr	-1570
▁His	-1571
▁art	-1572
ministration	-1573
▁foot	-1574
▁laun	-1575
▁inst	-1576
▁rights	-1577
▁trying	-1578
ront	-1579
bor	-1580
▁host	-1581
▁star	-1582
co	-1583
▁soldiers	-1584
aced	-1585
▁video	-1586
▁develop	-1587
▁King	-1588
retary	-1589
▁el	-1590
▁Pal	-1591
ically	-1592
▁White	-1593
▁attorney	-1594
ready	-1595
▁Sw	-1596
▁Mexico	-1597
▁something	-1598
▁film	-1599
▁25	-1600
▁City	-1601
▁cent	-1602
▁ship	-1603
▁political	-1604
▁surv	-1605
bab	-1606
▁McC	-1607
▁Iraqi	-1608
▁change	-1609
ij	-1610
▁alleged	-1611
▁interview	-1612
▁Gr	-1613
▁cre	-1614
ected	-1615
▁wound	-1616
ys	-1617
▁Aust	-1618
ats	-1619
▁ri	-1620
▁event	-1621
▁stand	-1622
▁January	-1623
aper	-1624
▁den	-1625
icans	-1626
ession	-1627
▁claim	-1628
▁already	-1629
▁product	-1630
ards	-1631
▁read	-1632
now	-1633
▁weeks	-1634
ruck	-1635
▁point	-1636
itted	-1637
orning	-1638
▁stre	-1639
empt	-1640
▁describ	-1641
▁reb	-1642
iven	-1643
▁larg	-1644
▁side	-1645
▁murder	-1646
▁employ	-1647
ask	-1648
▁service	-1649
istry	-1650
uation	-1651
▁taking	-1652
0,000	-1653
▁This	-1654
▁bill	-1655
omin	-1656
ored	-1657
▁America	-1658
▁dro	-1659
▁consid	-1660
▁director	-1661
▁list	-1662
▁give	-1663
▁dam	-1664
▁Me	-1665
▁198	-1666
ese	-1667
▁manag	-1668
▁Tex	-1669
▁music	-1670
ti	-1671
▁El	-1672
▁less	-1673
▁Mus	-1674
▁decl	-1675
▁third	-1676
▁100	-1677
▁little	-1678
rem	-1679
ric	-1680
▁Angel	-1681
ef	-1682
ogra	-1683
▁relations	-1684
ne	-1685
▁paren	-1686
ees	-1687
▁partic	-1688
▁suff	-1689
▁started	-1690
▁club	-1691
▁things	-1692
form	-1693
gest	-1694
▁16	-1695
itions	-1696
▁chief	-1697
▁ed	-1698
▁fact	-1699
▁ris	-1700
atter	-1701
▁deter	-1702
eptember	-1703
▁pil	-1704
▁crash	-1705
▁stay	-1706
▁become	-1707
▁eng	-1708
▁2006	-1709
▁late	-1710
-1	-1711
▁pir	-1712
▁Cong	-1713
▁making	-1714
▁mid	-1715
▁hope	-1716
▁received	-1717
▁decision	-1718
▁victims	-1719
▁dr	-1720
▁flight	-1721
NG	-1722
▁San	-1723
medi	-1724
▁mess	-1725
▁Texas	-1726
▁name	-1727
ying	-1728
rench	-1729
▁search	-1730
▁better	-1731
▁September	-1732
raft	-1733
raw	-1734
▁arri	-1735
▁lost	-1736
ape	-1737
apan	-1738
uck	-1739
▁current	-1740
▁final	-1741
▁War	-1742
▁tele	-1743
▁Bra	-1744
▁targ	-1745
▁wind	-1746
▁officers	-1747
ots	-1748
▁France	-1749
▁always	-1750
▁ground	-1751
▁wanted	-1752
▁June	-1753
▁West	-1754
▁mod	-1755
▁party	-1756
▁missing	-1757
He	-1758
ham	-1759
erence	-1760
▁Japan	-1761
▁cut	-1762
▁cover	-1763
▁involved	-1764
ocu	-1765
iger	-1766
▁emer	-1767
▁billion	-1768
here	-1769
▁You	-1770
ev	-1771
▁must	-1772
uge	-1773
▁Some	-1774
▁half	-1775
▁Rober	-1776
▁level	-1777
▁possible	-1778
▁prosecut	-1779
▁control	-1780
▁daughter	-1781
▁ap	-1782
▁After	-1783
elebr	-1784
▁seven	-1785
▁13	-1786
▁14	-1787
▁sol	-1788
▁French	-1789
oard	-1790
ousands	-1791
▁morning	-1792
▁resident	-1793
▁sout	-1794
ressed	-1795
ung	-1796
ournal	-1797
hic	-1798
less	-1799
▁thought	-1800
▁If	-1801
ily	-1802
▁resc	-1803
resent	-1804
▁behind	-1805
▁doct	-1806
▁community	-1807
▁killing	-1808
▁African	-1809
▁students	-1810
▁center	-1811
urr	-1812
▁Georg	-1813
▁plans	-1814
▁nearly	-1815
▁cit	-1816
▁sour	-1817
▁eight	-1818
▁Can	-1819
▁immedi	-1820
▁airport	-1821
▁respons	-1822
off	-1823
▁Br	-1824
▁TV	-1825
istrict	-1826
▁medical	-1827
woman	-1828
▁Hait	-1829
▁peace	-1830
ium	-1831
rab	-1832
▁shows	-1833
iber	-1834
▁officer	-1835
par	-1836
▁Par	-1837
ten	-1838
▁17	-1839
▁Man	-1840
▁Two	-1841
▁form	-1842
▁might	-1843
cher	-1844
▁Gen	-1845
▁ord	-1846
▁fighting	-1847
▁economic	-1848
▁carry	-1849
▁neigh	-1850
▁having	-1851
▁Ed	-1852
arge	-1853
▁result	-1854
▁evidence	-1855
▁minister	-1856
ades	-1857
▁July	-1858
▁cost	-1859
▁treat	-1860
▁Somalia	-1861
▁led	-1862
▁dest	-1863
▁weap	-1864
▁Indian	-1865
urk	-1866
▁Her	-1867
▁tour	-1868
▁minutes	-1869
band	-1870
▁lik	-1871
▁priv	-1872
▁produ	-1873
),	-1874
▁coll	-1875
▁road	-1876
iously	-1877
▁building	-1878
▁Ass	-1879
▁Mil	-1880
ya	-1881
ald	-1882
▁Aug	-1883
▁Dec	-1884
▁vehic	-1885
▁view	-1886
▁Ken	-1887
▁Court	-1888
erv	-1889
There	-1890
▁injured	-1891
▁militants	-1892
▁David	-1893
▁different	-1894
elt	-1895
▁di	-1896
▁Res	-1897
▁given	-1898
▁August	-1899
▁attempt	-1900
que	-1901
umb	-1902
▁batt	-1903
▁calls	-1904
▁net	-1905
▁sum	-1906
ology	-1907
gether	-1908
▁together	-1909
▁50	-1910
lant	-1911
▁eas	-1912
▁once	-1913
▁Ex	-1914
▁nort	-1915
▁Minister	-1916
▁Will	-1917
▁live	-1918
▁activ	-1919
echn	-1920
▁fre	-1921
▁grow	-1922
▁became	-1923
▁member	-1924
ns	-1925
▁Sm	-1926
▁comple	-1927
▁continue	-1928
▁free	-1929
itional	-1930
ada	-1931
▁parents	-1932
▁Hol	-1933
▁execut	-1934
▁Los	-1935
▁saw	-1936
inc	-1937
pite	-1938
▁When	-1939
▁bank	-1940
▁story	-1941
▁celebr	-1942
mp	-1943
▁docu	-1944
▁lives	-1945
▁question	-1946
head	-1947
▁Ear	-1948
▁tre	-1949
upt	-1950
▁ple	-1951
▁March	-1952
▁storm	-1953
ulation	-1954
vices	-1955
▁chang	-1956
▁following	-1957
▁seek	-1958
▁polic	-1959
▁remains	-1960
ches	-1961
▁sen	-1962
gress	-1963
▁ever	-1964
▁break	-1965
mber	-1966
▁fund	-1967
▁Per	-1968
▁Mad	-1969
▁comes	-1970
▁process	-1971
sc	-1972
▁University	-1973
▁using	-1974
▁ban	-1975
▁close	-1976
▁kind	-1977
▁election	-1978
▁Musl	-1979
▁Georgia	-1980
uty	-1981
▁$2	-1982
most	-1983
▁compet	-1984
era	-1985
▁Americans	-1986
▁why	-1987
aster	-1988
undred	-1989
▁spokeswoman	-1990
cel	-1991
▁happened	-1992
▁i	-1993
bass	-1994
▁fall	-1995
▁fell	-1996
▁Brown	-1997
▁Center	-1998
oe	-1999
▁hus	-2000
▁compl	-2001
▁north	-2002
▁40	-2003
ales	-2004
▁cour	-2005
▁More	-2006
▁situation	-2007
▁leave	-2008
▁looking	-2009
▁problems	-2010
ences	-2011
▁coast	-2012
▁adm	-2013
▁walk	-2014
▁special	-2015
aed	-2016
arm	-2017
ault	-2018
ints	-2019
▁step	-2020
ps	-2021
▁Just	-2022
▁Authorities	-2023
1,	-2024
▁book	-2025
▁Inter	-2026
ovember	-2027
▁jo	-2028
icide	-2029
▁strong	-2030
They	-2031
▁game	-2032
aid	-2033
▁So	-2034
icult	-2035
▁cases	-2036
▁enough	-2037
▁groups	-2038
▁Acc	-2039
▁Offic	-2040
▁areas	-2041
▁gave	-2042
▁November	-2043
ney	-2044
ona	-2045
▁My	-2046
▁doing	-2047
▁heart	-2048
cement	-2049
▁issue	-2050
▁design	-2051
▁fut	-2052
▁glob	-2053
▁Angeles	-2054
rain	-2055
▁class	-2056
30	-2057
▁dist	-2058
aeda	-2059
▁Oct	-2060
ought	-2061
▁Austral	-2062
▁order	-2063
BI	-2064
ease	-2065
▁Sch	-2066
▁important	-2067
▁indust	-2068
aud	-2069
aker	-2070
▁aut	-2071
ients	-2072
▁bring	-2073
▁fun	-2074
overed	-2075
▁judge	-2076
▁room	-2077
▁issued	-2078
▁Cor	-2079
pro	-2080
aged	-2081
▁fur	-2082
ances	-2083
rought	-2084
▁inside	-2085
▁husband	-2086
▁administration	-2087
stand	-2088
▁vote	-2089
▁Atlant	-2090
▁oil	-2091
inese	-2092
▁mom	-2093
▁techn	-2094
▁action	-2095
ett	-2096
ring	-2097
▁cause	-2098
▁homes	-2099
▁weekend	-2100
of	-2101
ashed	-2102
▁press	-2103
ebru	-2104
▁trial	-2105
ebruary	-2106
ached	-2107
atives	-2108
▁cancer	-2109
▁represent	-2110
pril	-2111
wards	-2112
▁black	-2113
▁October	-2114
▁border	-2115
▁caused	-2116
HI	-2117
▁recently	-2118
▁Braz	-2119
▁Turk	-2120
▁large	-2121
▁history	-2122
▁December	-2123
ems	-2124
▁pain	-2125
▁February	-2126
▁24	-2127
acked	-2128
▁role	-2129
estern	-2130
▁Carol	-2131
▁issues	-2132
riff	-2133
▁mag	-2134
▁Army	-2135
▁phone	-2136
▁scene	-2137
▁problem	-2138
▁full	-2139
▁mass	-2140
▁conduct	-2141
ox	-2142
aby	-2143
aur	-2144
▁himself	-2145
itness	-2146
▁newsp	-2147
▁April	-2148
▁estim	-2149
▁force	-2150
▁future	-2151
▁board	-2152
▁sched	-2153
ari	-2154
▁Med	-2155
▁chall	-2156
▁flood	-2157
▁match	-2158
▁disapp	-2159
ature	-2160
itive	-2161
▁doesn	-2162
▁whose	-2163
▁equ	-2164
.,	-2165
▁Te	-2166
▁init	-2167
engers	-2168
▁Congress	-2169
▁Mor	-2170
▁Paul	-2171
though	-2172
ction	-2173
▁include	-2174
▁love	-2175
▁thousands	-2176
amb	-2177
lin	-2178
▁Brazil	-2179
vision	-2180
▁aw	-2181
ampions	-2182
▁general	-2183
▁getting	-2184
▁suspect	-2185
▁neighbor	-2186
▁couple	-2187
mon	-2188
▁meeting	-2189
▁197	-2190
▁2009	-2191
▁movie	-2192
▁Chinese	-2193
▁wounded	-2194
rowd	-2195
▁lear	-2196
▁often	-2197
▁watch	-2198
▁League	-2199
mar	-2200
▁FBI	-2201
▁Port	-2202
▁done	-2203
▁front	-2204
▁mot	-2205
iding	-2206
uries	-2207
▁families	-2208
▁detail	-2209
▁ide	-2210
▁tried	-2211
▁target	-2212
lish	-2213
▁Ber	-2214
▁Def	-2215
▁check	-2216
ped	-2217
▁bar	-2218
enal	-2219
▁Korea	-2220
ortun	-2221
▁disp	-2222
ials	-2223
str	-2224
▁alleg	-2225
▁comment	-2226
▁confirmed	-2227
aps	-2228
▁occur	-2229
▁thing	-2230
▁presidential	-2231
sel	-2232
▁Go	-2233
▁brother	-2234
▁begin	-2235
▁super	-2236
▁age	-2237
odies	-2238
uses	-2239
▁2005	-2240
▁south	-2241
▁Dr	-2242
enced	-2243
▁deaths	-2244
agh	-2245
▁esc	-2246
ports	-2247
▁within	-2248
▁weapons	-2249
▁interest	-2250
▁conn	-2251
ults	-2252
ze	-2253
▁comb	-2254
▁believed	-2255
▁impro	-2256
▁safety	-2257
▁22	-2258
rote	-2259
ams	-2260
▁clos	-2261
▁leav	-2262
idd	-2263
ires	-2264
▁Hill	-2265
▁reach	-2266
ibility	-2267
uclear	-2268
▁based	-2269
▁further	-2270
▁workers	-2271
▁difficult	-2272
not	-2273
ming	-2274
▁discuss	-2275
▁Pakistani	-2276
ara	-2277
time	-2278
▁bad	-2279
sy	-2280
irc	-2281
craft	-2282
ening	-2283
▁anim	-2284
▁capt	-2285
▁risk	-2286
▁critic	-2287
oper	-2288
▁staff	-2289
▁hig	-2290
▁beat	-2291
▁line	-2292
▁prop	-2293
▁convicted	-2294
▁Sup	-2295
▁station	-2296
ane	-2297
ays	-2298
▁ty	-2299
ocial	-2300
▁jail	-2301
▁efforts	-2302
rol	-2303
▁sell	-2304
▁explos	-2305
▁victory	-2306
▁conference	-2307
▁z	-2308
ergy	-2309
ograph	-2310
▁aid	-2311
▁cle	-2312
iron	-2313
▁Vir	-2314
atest	-2315
iminal	-2316
▁foreign	-2317
▁wrote	-2318
▁What	-2319
▁living	-2320
▁According	-2321
▁Rich	-2322
undreds	-2323
▁Robert	-2324
▁economy	-2325
olf	-2326
▁residents	-2327
uled	-2328
50	-2329
▁turned	-2330
▁network	-2331
▁emergency	-2332
ude	-2333
▁played	-2334
▁agreement	-2335
▁operation	-2336
▁rock	-2337
▁named	-2338
▁William	-2339
▁European	-2340
val	-2341
▁showed	-2342
▁accident	-2343
▁tit	-2344
▁fans	-2345
▁However	-2346
▁southern	-2347
ead	-2348
aled	-2349
ilar	-2350
epend	-2351
▁lawy	-2352
▁park	-2353
▁contract	-2354
In	-2355
▁crime	-2356
▁neg	-2357
▁indic	-2358
▁newspaper	-2359
aded	-2360
▁pick	-2361
Amer	-2362
▁sug	-2363
▁guil	-2364
▁provide	-2365
▁passengers	-2366
▁dou	-2367
▁Britain	-2368
▁identified	-2369
▁cris	-2370
ensive	-2371
▁coming	-2372
▁Em	-2373
irth	-2374
▁201	-2375
▁fig	-2376
▁injuries	-2377
▁returned	-2378
▁organization	-2379
ories	-2380
▁2004	-2381
▁financ	-2382
▁Nations	-2383
gu	-2384
na	-2385
▁UK	-2386
▁Ah	-2387
▁Kh	-2388
▁US	-2389
▁wear	-2390
▁makes	-2391
▁almost	-2392
▁helped	-2393
imate	-2394
▁anti	-2395
▁ball	-2396
▁heard	-2397
▁quick	-2398
▁nuclear	-2399
▁respond	-2400
▁er	-2401
▁Moh	-2402
▁imm	-2403
▁With	-2404
onse	-2405
▁tem	-2406
ality	-2407
▁charge	-2408
▁market	-2409
uk	-2410
▁career	-2411
AT	-2412
▁Cup	-2413
▁Kar	-2414
▁pos	-2415
▁tax	-2416
▁latest	-2417
▁worked	-2418
▁brought	-2419
▁largest	-2420
▁serious	-2421
▁suicide	-2422
3,	-2423
aut	-2424
urb	-2425
ging	-2426
icop	-2427
anger	-2428
▁Smith	-2429
▁crowd	-2430
▁global	-2431
▁likely	-2432
▁popular	-2433
stitution	-2434
▁reporters	-2435
▁tw	-2436
▁hotel	-2437
▁Secretary	-2438
TON	-2439
▁div	-2440
▁wants	-2441
▁message	-2442
itar	-2443
▁goal	-2444
▁appeared	-2445
▁civilians	-2446
gal	-2447
▁friends	-2448
hing	-2449
▁vol	-2450
▁Pl	-2451
hood	-2452
ential	-2453
▁Haiti	-2454
Re	-2455
▁non	-2456
▁pot	-2457
▁val	-2458
▁bodies	-2459
▁football	-2460
▁1,	-2461
▁meas	-2462
▁defense	-2463
▁Security	-2464
▁27	-2465
ional	-2466
▁George	-2467
▁province	-2468
▁hon	-2469
▁nine	-2470
▁prep	-2471
▁cross	-2472
▁grand	-2473
oid	-2474
▁yet	-2475
olution	-2476
▁due	-2477
▁key	-2478
▁feet	-2479
▁pict	-2480
ule	-2481
itten	-2482
▁Virgin	-2483
▁series	-2484
unt	-2485
ament	-2486
▁fear	-2487
▁marri	-2488
▁effect	-2489
▁aircraft	-2490
wood	-2491
▁Mal	-2492
▁Val	-2493
▁states	-2494
▁relationship	-2495
ittee	-2496
▁confl	-2497
▁Islamic	-2498
▁shooting	-2499
▁points	-2500
▁certain	-2501
▁journal	-2502
▁Republic	-2503
cil	-2504
pir	-2505
▁today	-2506
▁Carolina	-2507
ado	-2508
▁lo	-2509
▁WAS	-2510
▁crisis	-2511
▁scheduled	-2512
▁ill	-2513
NGTON	-2514
▁trad	-2515
▁protect	-2516
▁Democratic	-2517
▁immediately	-2518
itor	-2519
▁foc	-2520
▁link	-2521
▁repl	-2522
▁Russia	-2523
▁author	-2524
▁Germany	-2525
▁Zim	-2526
▁Russian	-2527
▁Ste	-2528
▁earth	-2529
▁Iranian	-2530
itter	-2531
▁gener	-2532
▁guilty	-2533
▁television	-2534
ify	-2535
men	-2536
▁Do	-2537
▁port	-2538
▁Union	-2539
▁northern	-2540
amin	-2541
▁rad	-2542
ocked	-2543
ounds	-2544
▁Mart	-2545
▁mean	-2546
HINGTON	-2547
▁island	-2548
▁private	-2549
▁industry	-2550
▁occurred	-2551
▁lim	-2552
▁vir	-2553
▁Arab	-2554
▁light	-2555
▁anything	-2556
▁WASHINGTON	-2557
ago	-2558
udd	-2559
▁Fore	-2560
▁Niger	-2561
▁proper	-2562
▁Ministry	-2563
mad	-2564
urd	-2565
▁cred	-2566
▁drugs	-2567
▁pilot	-2568
lymp	-2569
▁photos	-2570
eck	-2571
ota	-2572
▁env	-2573
▁ille	-2574
▁soon	-2575
▁space	-2576
▁nothing	-2577
▁operations	-2578
rupt	-2579
▁included	-2580
▁enc	-2581
▁command	-2582
▁student	-2583
uff	-2584
airs	-2585
▁sure	-2586
▁birth	-2587
ulf	-2588
aces	-2589
▁low	-2590
▁Mark	-2591
▁cell	-2592
ips	-2593
▁Char	-2594
▁citiz	-2595
▁compan	-2596
▁denied	-2597
sw	-2598
▁cand	-2599
▁Olymp	-2600
▁claims	-2601
arent	-2602
▁address	-2603
▁mission	-2604
▁someone	-2605
arty	-2606
▁gas	-2607
▁Wood	-2608
▁legal	-2609
isc	-2610
▁sat	-2611
bed	-2612
liam	-2613
ither	-2614
▁forced	-2615
oice	-2616
▁flu	-2617
onald	-2618
▁boat	-2619
anda	-2620
▁army	-2621
▁laws	-2622
▁loss	-2623
▁race	-2624
▁independ	-2625
▁60	-2626
rugg	-2627
▁Park	-2628
▁infl	-2629
▁custom	-2630
ift	-2631
▁Sam	-2632
▁defend	-2633
▁assault	-2634
▁disease	-2635
▁pirates	-2636
eal	-2637
▁burn	-2638
▁needs	-2639
liament	-2640
▁Barack	-2641
por	-2642
ironment	-2643
▁Tw	-2644
▁fly	-2645
▁red	-2646
▁displ	-2647
inal	-2648
babwe	-2649
▁ahead	-2650
▁described	-2651
oor	-2652
ighters	-2653
reme	-2654
▁separ	-2655
▁similar	-2656
▁Muslim	-2657
▁strugg	-2658
▁forward	-2659
▁Zimbabwe	-2660
▁response	-2661
▁training	-2662
▁financial	-2663
based	-2664
▁investigators	-2665
dad	-2666
▁fat	-2667
▁reve	-2668
▁helicop	-2669
wh	-2670
ges	-2671
ural	-2672
▁fav	-2673
▁shut	-2674
▁avail	-2675
▁suspected	-2676
oke	-2677
ador	-2678
▁Sri	-2679
▁Lank	-2680
▁failed	-2681
▁suspects	-2682
If	-2683
atic	-2684
▁Off	-2685
▁rob	-2686
rel	-2687
▁Att	-2688
▁circ	-2689
igence	-2690
urt	-2691
▁Pat	-2692
▁dog	-2693
▁wat	-2694
▁While	-2695
▁contact	-2696
).	-2697
.5	-2698
ert	-2699
▁Ham	-2700
ively	-2701
▁kids	-2702
▁vill	-2703
▁moved	-2704
▁source	-2705
ope	-2706
▁Defense	-2707
oo	-2708
ani	-2709
fully	-2710
▁letter	-2711
▁senior	-2712
za	-2713
▁broad	-2714
▁conditions	-2715
You	-2716
roy	-2717
▁tot	-2718
▁Senate	-2719
▁custody	-2720
▁companies	-2721
-2	-2722
abor	-2723
▁hearing	-2724
▁rout	-2725
▁enter	-2726
▁spent	-2727
▁fle	-2728
▁department	-2729
▁everything	-2730
▁Je	-2731
room	-2732
▁faces	-2733
AR	-2734
Wh	-2735
▁Bagh	-2736
▁song	-2737
▁demon	-2738
▁Associ	-2739
▁Lou	-2740
▁vac	-2741
itting	-2742
▁battle	-2743
▁player	-2744
▁perform	-2745
▁population	-2746
-0	-2747
ogn	-2748
icket	-2749
▁safe	-2750
▁Island	-2751
▁course	-2752
▁recall	-2753
ipp	-2754
body	-2755
▁pract	-2756
iec	-2757
rop	-2758
▁ur	-2759
napp	-2760
▁Wil	-2761
▁request	-2762
▁Red	-2763
▁word	-2764
▁means	-2765
▁policy	-2766
▁details	-2767
▁patients	-2768
▁available	-2769
▁Gar	-2770
▁McCain	-2771
▁Baghdad	-2772
▁blood	-2773
ery	-2774
tle	-2775
▁doll	-2776
▁fired	-2777
eg	-2778
▁Cub	-2779
▁bas	-2780
▁baby	-2781
▁knew	-2782
ata	-2783
reg	-2784
cast	-2785
▁orig	-2786
gent	-2787
▁Abd	-2788
▁writ	-2789
▁leading	-2790
van	-2791
▁Ital	-2792
▁needed	-2793
▁prevent	-2794
▁condition	-2795
ising	-2796
▁base	-2797
▁truck	-2798
sp	-2799
iet	-2800
itz	-2801
▁players	-2802
▁carrying	-2803
ivid	-2804
ption	-2805
using	-2806
▁Last	-2807
▁Sing	-2808
▁Guard	-2809
▁criminal	-2810
▁employees	-2811
wide	-2812
▁East	-2813
▁talks	-2814
▁Richard	-2815
▁exc	-2816
akers	-2817
▁publ	-2818
▁wait	-2819
▁access	-2820
▁despite	-2821
ole	-2822
oma	-2823
▁21	-2824
▁Bill	-2825
▁stage	-2826
▁earthqu	-2827
west	-2828
asing	-2829
▁Italy	-2830
▁Colomb	-2831
▁Health	-2832
▁district	-2833
▁sentence	-2834
urrican	-2835
▁danger	-2836
▁allowed	-2837
▁Force	-2838
▁spread	-2839
▁Mexican	-2840
▁present	-2841
elligence	-2842
▁conflict	-2843
che	-2844
fer	-2845
ores	-2846
▁squ	-2847
▁parts	-2848
▁victim	-2849
▁Virginia	-2850
▁ordered	-2851
▁elections	-2852
▁Thom	-2853
▁wrong	-2854
▁witness	-2855
▁cult	-2856
▁trip	-2857
▁launch	-2858
▁treatment	-2859
yr	-2860
▁Gl	-2861
ridge	-2862
▁Prime	-2863
▁closed	-2864
▁damage	-2865
▁perfor	-2866
▁Israeli	-2867
▁deliver	-2868
▁hundreds	-2869
▁Navy	-2870
▁Ro	-2871
▁Cap	-2872
▁offer	-2873
▁experience	-2874
yn	-2875
ains	-2876
▁aud	-2877
▁Coast	-2878
▁armed	-2879
▁fourth	-2880
▁social	-2881
▁leaving	-2882
▁particular	-2883
▁hol	-2884
ruction	-2885
▁affili	-2886
▁online	-2887
▁running	-2888
▁teen	-2889
ration	-2890
▁accept	-2891
▁candid	-2892
▁attention	-2893
▁Ma	-2894
ston	-2895
▁vess	-2896
▁ey	-2897
▁Day	-2898
▁box	-2899
▁filed	-2900
▁demand	-2901
▁opposition	-2902
ugh	-2903
ends	-2904
▁surviv	-2905
▁opportun	-2906
▁personal	-2907
ville	-2908
friend	-2909
▁relig	-2910
▁apparent	-2911
▁norm	-2912
▁favor	-2913
▁28	-2914
▁fr	-2915
ayed	-2916
▁Coun	-2917
▁Milan	-2918
▁crimes	-2919
▁collect	-2920
▁suggest	-2921
▁marriage	-2922
9,	-2923
uit	-2924
▁26	-2925
▁Miss	-2926
▁hear	-2927
▁field	-2928
▁speech	-2929
▁claimed	-2930
reet	-2931
▁NAT	-2932
acter	-2933
▁expect	-2934
cy	-2935
DON	-2936
vey	-2937
▁196	-2938
▁LON	-2939
▁jobs	-2940
▁phys	-2941
▁spot	-2942
▁insur	-2943
▁Italian	-2944
▁vehicle	-2945
▁Op	-2946
ilities	-2947
▁recogn	-2948
urricane	-2949
▁written	-2950
▁bur	-2951
▁common	-2952
ications	-2953
▁questions	-2954
▁educ	-2955
▁LONDON	-2956
▁anyone	-2957
▁rebels	-2958
▁increase	-2959
ford	-2960
▁deep	-2961
▁reason	-2962
▁Atlanta	-2963
▁La	-2964
▁Many	-2965
▁News	-2966
▁rain	-2967
American	-2968
▁Justice	-2969
500	-2970
noon	-2971
▁Saud	-2972
▁colle	-2973
▁church	-2974
BC	-2975
iles	-2976
ordin	-2977
osing	-2978
▁hous	-2979
Report	-2980
istance	-2981
▁cannot	-2982
▁energy	-2983
▁afternoon	-2984
▁unc	-2985
azine	-2986
ificant	-2987
▁ET	-2988
▁Des	-2989
▁white	-2990
▁crashed	-2991
▁$3	-2992
▁alb	-2993
▁Former	-2994
▁environment	-2995
ki	-2996
omm	-2997
▁Bay	-2998
▁analy	-2999
▁strik	-3000
ecess	-3001
▁Mass	-3002
▁answ	-3003
▁poll	-3004
▁matter	-3005
▁kidnapp	-3006
bassy	-3007
▁decided	-3008
▁streets	-3009
▁suffered	-3010
iod	-3011
ote	-3012
▁Inv	-3013
ently	-3014
▁agreed	-3015
?"	-3016
ows	-3017
iting	-3018
ublican	-3019
▁review	-3020
But	-3021
oud	-3022
▁Dan	-3023
▁individ	-3024
▁launched	-3025
fl	-3026
▁sn	-3027
rown	-3028
▁gra	-3029
▁bene	-3030
▁snow	-3031
▁ended	-3032
▁speak	-3033
▁manager	-3034
▁Don	-3035
▁cam	-3036
▁rev	-3037
▁NATO	-3038
▁cart	-3039
▁shop	-3040
▁facility	-3041
▁documents	-3042
▁earthquake	-3043
▁Sal	-3044
▁Tra	-3045
▁fem	-3046
▁sle	-3047
▁gone	-3048
▁playing	-3049
▁terrorist	-3050
bably	-3051
▁About	-3052
acks	-3053
▁doz	-3054
▁services	-3055
▁considered	-3056
▁defe	-3057
▁penal	-3058
▁rescue	-3059
▁project	-3060
forcement	-3061
▁particip	-3062
▁understand	-3063
ises	-3064
▁Boy	-3065
useum	-3066
▁Intern	-3067
▁served	-3068
▁weather	-3069
eder	-3070
mine	-3071
▁Mic	-3072
▁pred	-3073
▁arrived	-3074
▁doctors	-3075
aza	-3076
cri	-3077
nel	-3078
▁23	-3079
▁Sy	-3080
▁ruling	-3081
▁struck	-3082
▁performan	-3083
IA	-3084
▁Rob	-3085
▁tru	-3086
▁draw	-3087
▁Saudi	-3088
▁hands	-3089
▁signed	-3090
▁Service	-3091
ream	-3092
▁mill	-3093
▁sail	-3094
▁James	-3095
▁spoke	-3096
▁title	-3097
▁chance	-3098
▁organiz	-3099
▁soldier	-3100
▁allegations	-3101
berg	-3102
selves	-3103
▁heavy	-3104
▁summer	-3105
▁results	-3106
mit	-3107
cing	-3108
▁Ben	-3109
▁paid	-3110
ability	-3111
▁Republican	-3112
abe	-3113
orter	-3114
▁High	-3115
ication	-3116
▁iReport	-3117
▁products	-3118
▁controvers	-3119
bre	-3120
cean	-3121
▁mat	-3122
▁appl	-3123
▁Press	-3124
▁single	-3125
agn	-3126
▁const	-3127
▁Office	-3128
▁affected	-3129
2,	-3130
▁study	-3131
▁Argent	-3132
▁Palest	-3133
▁prime	-3134
▁passed	-3135
▁parliament	-3136
ky	-3137
▁Act	-3138
▁idea	-3139
▁Peter	-3140
▁immig	-3141
▁Jud	-3142
▁girls	-3143
▁themselves	-3144
7,	-3145
going	-3146
▁veter	-3147
▁actually	-3148
uf	-3149
She	-3150
▁seem	-3151
▁hopes	-3152
▁store	-3153
▁engine	-3154
.'	-3155
▁probably	-3156
oti	-3157
book	-3158
rant	-3159
ammed	-3160
▁Cent	-3161
▁followed	-3162
▁Officials	-3163
inh	-3164
▁Sim	-3165
▁buy	-3166
▁ens	-3167
orial	-3168
▁People	-3169
▁central	-3170
▁position	-3171
NA	-3172
bs	-3173
▁Three	-3174
▁mount	-3175
▁continued	-3176
1.	-3177
run	-3178
ula	-3179
▁Dar	-3180
▁redu	-3181
▁share	-3182
▁resign	-3183
▁everyone	-3184
▁concerns	-3185
▁II	-3186
emen	-3187
ners	-3188
rief	-3189
▁lif	-3190
▁lived	-3191
▁takes	-3192
▁illegal	-3193
▁mult	-3194
▁trou	-3195
▁lawyer	-3196
▁discovered	-3197
aught	-3198
chers	-3199
ishing	-3200
▁doctor	-3201
▁entire	-3202
▁events	-3203
▁sexual	-3204
▁Council	-3205
▁however	-3206
▁significant	-3207
yle	-3208
▁coal	-3209
▁wasn	-3210
▁refer	-3211
▁singer	-3212
▁biggest	-3213
▁carried	-3214
▁reached	-3215
▁ren	-3216
amous	-3217
overy	-3218
▁Four	-3219
esters	-3220
▁Party	-3221
▁Spain	-3222
▁whole	-3223
▁worst	-3224
▁toward	-3225
iter	-3226
oura	-3227
acher	-3228
▁Sant	-3229
encies	-3230
▁English	-3231
▁calling	-3232
▁responsible	-3233
▁intelligence	-3234
lo	-3235
▁fuel	-3236
▁mater	-3237
▁invest	-3238
ancy	-3239
▁esp	-3240
itude	-3241
▁feat	-3242
hester	-3243
▁Internet	-3244
oz	-3245
▁evac	-3246
▁cities	-3247
▁planned	-3248
iana	-3249
heast	-3250
▁album	-3251
▁aboard	-3252
▁strike	-3253
▁destroy	-3254
▁quickly	-3255
ster	-3256
▁ran	-3257
▁impact	-3258
▁posted	-3259
▁account	-3260
▁nations	-3261
▁estimated	-3262
▁Law	-3263
▁pers	-3264
▁additional	-3265
ceed	-3266
cial	-3267
▁poor	-3268
▁round	-3269
ma	-3270
erry	-3271
▁Sus	-3272
▁Ten	-3273
▁2003	-3274
itarian	-3275
▁addition	-3276
▁magazine	-3277
▁Che	-3278
▁rac	-3279
▁giving	-3280
▁offered	-3281
ken	-3282
yan	-3283
▁pan	-3284
▁felt	-3285
▁suppl	-3286
▁Somali	-3287
▁period	-3288
▁married	-3289
▁citizens	-3290
▁secretary	-3291
fire	-3292
ping	-3293
ties	-3294
lywood	-3295
▁Other	-3296
▁attacked	-3297
▁determin	-3298
▁research	-3299
ny	-3300
itch	-3301
▁pun	-3302
▁Penn	-3303
▁nomin	-3304
▁street	-3305
▁previous	-3306
▁executive	-3307
enger	-3308
▁Louis	-3309
ination	-3310
▁captain	-3311
▁protest	-3312
▁transport	-3313
roup	-3314
▁Mos	-3315
▁Pac	-3316
▁cars	-3317
▁Human	-3318
▁appeal	-3319
▁decades	-3320
▁Democrats	-3321
DA	-3322
hi	-3323
rants	-3324
▁adding	-3325
▁injury	-3326
vernment	-3327
▁evening	-3328
▁Investig	-3329
▁affiliate	-3330
▁commission	-3331
AA	-3332
EO	-3333
▁join	-3334
▁piec	-3335
▁female	-3336
▁moment	-3337
▁admitted	-3338
oms	-3339
aint	-3340
▁Ale	-3341
▁Leb	-3342
▁bag	-3343
ority	-3344
ighter	-3345
▁(1	-3346
▁repe	-3347
▁benef	-3348
▁total	-3349
▁Martin	-3350
▁consum	-3351
▁happen	-3352
▁opened	-3353
▁airline	-3354
▁Palestin	-3355
▁Association	-3356
iant	-3357
▁Mer	-3358
▁abs	-3359
▁send	-3360
▁declared	-3361
▁potential	-3362
ano	-3363
ental	-3364
izing	-3365
▁hero	-3366
▁mist	-3367
▁Black	-3368
▁cerem	-3369
▁estab	-3370
▁negoti	-3371
▁sentenced	-3372
▁Ill	-3373
▁quar	-3374
▁attend	-3375
▁refuge	-3376
gen	-3377
isl	-3378
▁band	-3379
airman	-3380
▁River	-3381
▁clean	-3382
▁worth	-3383
▁demonstr	-3384
▁Australia	-3385
▁Champions	-3386
▁dev	-3387
▁born	-3388
▁Agency	-3389
ological	-3390
▁governor	-3391
iami	-3392
roll	-3393
▁Mug	-3394
▁Now	-3395
▁Pri	-3396
▁ste	-3397
emy	-3398
▁Cont	-3399
▁abuse	-3400
▁currently	-3401
SA	-3402
ilt	-3403
▁ep	-3404
▁Mary	-3405
▁Most	-3406
▁golf	-3407
emb	-3408
ena	-3409
When	-3410
oming	-3411
▁pray	-3412
▁rank	-3413
▁influ	-3414
▁create	-3415
▁driver	-3416
▁fellow	-3417
▁longer	-3418
▁highest	-3419
▁seeking	-3420
▁believes	-3421
hab	-3422
istic	-3423
night	-3424
▁Miami	-3425
▁changed	-3426
nder	-3427
owell	-3428
▁creat	-3429
▁assist	-3430
▁opening	-3431
▁profession	-3432
4,	-3433
ih	-3434
oul	-3435
vent	-3436
▁Commission	-3437
▁neighborhood	-3438
▁ver	-3439
jects	-3440
▁trib	-3441
▁scient	-3442
▁stopped	-3443
▁wearing	-3444
agon	-3445
bert	-3446
down	-3447
▁Mem	-3448
▁Leban	-3449
ecially	-3450
▁Ronald	-3451
▁extrem	-3452
▁Airport	-3453
▁General	-3454
▁Tom	-3455
illed	-3456
▁Gulf	-3457
▁Span	-3458
▁parties	-3459
▁restaur	-3460
▁although	-3461
▁responsibility	-3462
0.	-3463
▁God	-3464
▁Bank	-3465
▁kept	-3466
jected	-3467
▁tourn	-3468
▁ministry	-3469
while	-3470
▁Paris	-3471
▁flights	-3472
▁connection	-3473
ady	-3474
oes	-3475
rey	-3476
▁Oh	-3477
utch	-3478
ersey	-3479
▁Airl	-3480
▁Camp	-3481
▁coach	-3482
▁virus	-3483
▁millions	-3484
LE	-3485
▁card	-3486
▁goes	-3487
▁huge	-3488
▁Foreign	-3489
▁See	-3490
▁bed	-3491
atory	-3492
field	-3493
▁aver	-3494
atural	-3495
▁freed	-3496
▁Madrid	-3497
▁growing	-3498
▁allegedly	-3499
▁published	-3500
▁Ali	-3501
▁Jeff	-3502
▁plant	-3503
▁determine	-3504
▁increased	-3505
ode	-3506
isco	-3507
▁sea	-3508
▁Earth	-3509
▁champ	-3510
▁counter	-3511
▁maintain	-3512
aily	-3513
sein	-3514
▁NAS	-3515
▁sal	-3516
▁doub	-3517
▁east	-3518
▁rape	-3519
00,000	-3520
▁sleep	-3521
▁withd	-3522
▁Mugabe	-3523
▁prompt	-3524
ks	-3525
ser	-3526
udan	-3527
▁Pre	-3528
▁jury	-3529
▁whom	-3530
ociety	-3531
▁Church	-3532
▁necess	-3533
▁regard	-3534
▁var	-3535
▁term	-3536
▁broke	-3537
▁comput	-3538
▁winner	-3539
▁performance	-3540
And	-3541
rag	-3542
▁hum	-3543
▁records	-3544
▁protests	-3545
▁technology	-3546
uing	-3547
▁data	-3548
▁stra	-3549
▁Thomas	-3550
▁raised	-3551
▁recomm	-3552
▁Another	-3553
▁challen	-3554
▁warning	-3555
▁distribut	-3556
irst	-3557
▁cru	-3558
ushed	-3559
▁pret	-3560
▁award	-3561
▁Supreme	-3562
▁created	-3563
▁helping	-3564
▁includes	-3565
.-	-3566
uz	-3567
het	-3568
eter	-3569
inois	-3570
▁document	-3571
▁35	-3572
▁har	-3573
▁Both	-3574
▁Chic	-3575
etimes	-3576
▁contain	-3577
▁helicopter	-3578
▁supporters	-3579
▁fast	-3580
▁fine	-3581
▁extra	-3582
▁happy	-3583
▁price	-3584
▁justice	-3585
▁remember	-3586
AN	-3587
ua	-3588
ala	-3589
▁Ne	-3590
enez	-3591
▁Ari	-3592
▁inn	-3593
▁kil	-3594
▁photo	-3595
▁tests	-3596
▁District	-3597
pan	-3598
iction	-3599
▁2007,	-3600
▁firef	-3601
▁quake	-3602
▁penalty	-3603
▁winning	-3604
▁Bel	-3605
▁ele	-3606
oring	-3607
▁Frank	-3608
▁react	-3609
▁sites	-3610
stitute	-3611
▁cooper	-3612
▁surger	-3613
▁Illinois	-3614
▁vehicles	-3615
▁Christian	-3616
gn	-3617
arry	-3618
▁pur	-3619
▁Sand	-3620
▁either	-3621
▁Spanish	-3622
▁surround	-3623
▁concerned	-3624
la	-3625
ked	-3626
foot	-3627
rick	-3628
▁bom	-3629
▁conc	-3630
▁Group	-3631
▁Korean	-3632
hib	-3633
ival	-3634
▁bit	-3635
▁arms	-3636
▁suit	-3637
▁wild	-3638
▁images	-3639
▁especially	-3640
TV	-3641
ibly	-3642
ples	-3643
plom	-3644
▁Inc	-3645
▁Sudan	-3646
▁Australian	-3647
▁prosecutors	-3648
OR	-3649
come	-3650
▁isn	-3651
▁Chief	-3652
▁Tamil	-3653
▁ruled	-3654
▁couldn	-3655
▁Chicago	-3656
▁concern	-3657
▁dollars	-3658
va	-3659
ateg	-3660
▁App	-3661
▁Del	-3662
▁Hen	-3663
▁unf	-3664
ffick	-3665
▁gold	-3666
▁rules	-3667
▁works	-3668
▁debate	-3669
▁actions	-3670
▁Attorney	-3671
joy	-3672
nes	-3673
▁To	-3674
arks	-3675
uted	-3676
▁Dub	-3677
▁Jim	-3678
mates	-3679
▁Scott	-3680
▁image	-3681
▁amount	-3682
▁annual	-3683
▁moving	-3684
▁Federal	-3685
▁dropped	-3686
▁improve	-3687
▁terrorism	-3688
St	-3689
ean	-3690
▁NASA	-3691
▁else	-3692
▁farm	-3693
▁rate	-3694
▁Woods	-3695
▁nearby	-3696
▁warned	-3697
▁receive	-3698
aped	-3699
arily	-3700
ashion	-3701
▁associ	-3702
▁counts	-3703
▁driving	-3704
▁civilian	-3705
▁progress	-3706
▁character	-3707
lor	-3708
▁Cr	-3709
rian	-3710
hered	-3711
▁Gaza	-3712
▁block	-3713
▁teams	-3714
▁Canada	-3715
▁minute	-3716
OS	-3717
▁aim	-3718
▁mer	-3719
▁gets	-3720
▁legisl	-3721
▁qualif	-3722
▁Olympic	-3723
▁tournament	-3724
▁$4	-3725
▁eth	-3726
makers	-3727
▁actor	-3728
▁asking	-3729
▁combat	-3730
▁comments	-3731
▁enforcement	-3732
aya	-3733
▁Fort	-3734
▁Manc	-3735
▁door	-3736
▁mind	-3737
ground	-3738
kn	-3739
iro	-3740
chie	-3741
▁pul	-3742
▁adop	-3743
▁date	-3744
▁credit	-3745
▁Sheriff	-3746
▁instead	-3747
▁massive	-3748
▁majority	-3749
ha	-3750
sex	-3751
ider	-3752
▁Gov	-3753
▁Trans	-3754
▁items	-3755
▁deploy	-3756
▁Nigeria	-3757
▁Airlines	-3758
▁supplies	-3759
▁transfer	-3760
▁expressed	-3761
▁Ray	-3762
▁sym	-3763
▁typ	-3764
iller	-3765
▁Green	-3766
▁serve	-3767
▁commit	-3768
▁holding	-3769
▁agencies	-3770
▁education	-3771
▁opportunity	-3772
▁humanitarian	-3773
,'	-3774
like	-3775
oted	-3776
▁Jew	-3777
▁emb	-3778
light	-3779
▁tens	-3780
▁2008,	-3781
▁Liber	-3782
▁ready	-3783
▁conserv	-3784
een	-3785
iled	-3786
▁Lee	-3787
▁cal	-3788
▁brief	-3789
▁urged	-3790
▁winds	-3791
▁experi	-3792
▁Twitter	-3793
▁shel	-3794
▁Kenya	-3795
▁School	-3796
▁diplom	-3797
▁schools	-3798
▁consider	-3799
rap	-3800
etro	-3801
▁Saf	-3802
▁opt	-3803
udget	-3804
▁Fire	-3805
▁traffic	-3806
quar	-3807
▁Jose	-3808
▁famous	-3809
▁sister	-3810
earchers	-3811
▁protesters	-3812
▁successful	-3813
▁90	-3814
fort	-3815
igan	-3816
oses	-3817
▁mis	-3818
5,000	-3819
▁track	-3820
▁commer	-3821
▁histor	-3822
▁animals	-3823
▁numbers	-3824
▁respect	-3825
▁champion	-3826
ola	-3827
ply	-3828
That	-3829
ique	-3830
water	-3831
▁amid	-3832
▁enjoy	-3833
▁model	-3834
▁Turkey	-3835
▁apolog	-3836
▁reform	-3837
▁sheriff	-3838
▁captured	-3839
▁presence	-3840
▁religious	-3841
▁investigating	-3842
ka	-3843
no	-3844
▁Rec	-3845
▁hij	-3846
▁wel	-3847
▁cash	-3848
▁jump	-3849
▁prim	-3850
▁tough	-3851
▁twice	-3852
▁inspect	-3853
▁refused	-3854
▁treated	-3855
▁challeng	-3856
▁provided	-3857
▁personnel	-3858
6,	-3859
turn	-3860
▁CEO	-3861
anted	-3862
▁bott	-3863
▁slow	-3864
▁toll	-3865
▁vers	-3866
▁Judge	-3867
▁Jersey	-3868
▁climate	-3869
▁surgery	-3870
▁coalition	-3871
▁apparently	-3872
My	-3873
▁Kim	-3874
▁names	-3875
▁owner	-3876
▁remained	-3877
ez	-3878
▁29	-3879
▁Ac	-3880
▁bi	-3881
angu	-3882
▁beg	-3883
▁dom	-3884
▁hor	-3885
▁Alex	-3886
▁avoid	-3887
▁sport	-3888
▁Hollywood	-3889
0,	-3890
rog	-3891
▁Jr	-3892
ding	-3893
▁Cal	-3894
▁Phil	-3895
▁self	-3896
▁blast	-3897
▁drive	-3898
▁agents	-3899
▁bombing	-3900
▁experts	-3901
▁Japanese	-3902
▁Committee	-3903
▁destroyed	-3904
▁throughout	-3905
iqu	-3906
▁Ok	-3907
▁Cop	-3908
break	-3909
▁save	-3910
▁games	-3911
▁terms	-3912
▁itself	-3913
▁related	-3914
▁Williams	-3915
▁revealed	-3916
illa	-3917
▁ant	-3918
asons	-3919
range	-3920
▁Mean	-3921
▁Pent	-3922
▁fair	-3923
▁fled	-3924
isions	-3925
▁achie	-3926
▁radio	-3927
▁sources	-3928
▁threatened	-3929
yc	-3930
dom	-3931
win	-3932
gypt	-3933
▁cas	-3934
known	-3935
▁tort	-3936
▁Since	-3937
lection	-3938
▁expert	-3939
▁Earlier	-3940
▁encoura	-3941
▁Pentagon	-3942
▁spending	-3943
▁customers	-3944
▁development	-3945
ID	-3946
▁Mo	-3947
iest	-3948
olic	-3949
ograp	-3950
▁Ohio	-3951
▁lack	-3952
▁wond	-3953
nowled	-3954
▁honor	-3955
▁speed	-3956
ruption	-3957
▁caught	-3958
▁natural	-3959
▁positive	-3960
▁attempted	-3961
▁6-	-3962
▁Joe	-3963
▁mob	-3964
aying	-3965
estic	-3966
orado	-3967
▁ones	-3968
▁Yemen	-3969
▁Mohammed	-3970
▁champions	-3971
ca	-3972
erved	-3973
▁Egypt	-3974
▁evacu	-3975
▁focus	-3976
▁green	-3977
▁mayor	-3978
▁Prince	-3979
▁looked	-3980
▁places	-3981
▁critical	-3982
▁dangerous	-3983
▁Jos	-3984
▁sem	-3985
astic	-3986
ufact	-3987
▁Anth	-3988
▁pack	-3989
▁west	-3990
▁levels	-3991
▁killings	-3992
▁challenge	-3993
▁determined	-3994
▁competition	-3995
▁constitution	-3996
ugg	-3997
aine	-3998
nedy	-3999
ully	-4000
▁Bol	-4001
▁Pan	-4002
ullah	-4003
▁Real	-4004
▁Step	-4005
▁push	-4006
icated	-4007
▁lower	-4008
▁linked	-4009
▁average	-4010
▁Administration	-4011
▁Ol	-4012
▁Sar	-4013
▁Sun	-4014
▁ang	-4015
ussein	-4016
▁Venez	-4017
▁joined	-4018
▁pounds	-4019
▁appears	-4020
▁ceremony	-4021
11	-4022
8,	-4023
▁Mu	-4024
etts	-4025
reng	-4026
resh	-4027
▁Hel	-4028
▁rise	-4029
astern	-4030
▁Ahmad	-4031
▁below	-4032
▁drink	-4033
▁looks	-4034
▁stars	-4035
▁normal	-4036
▁prices	-4037
▁sought	-4038
tainment	-4039
▁confirm	-4040
▁landing	-4041
▁various	-4042
imul	-4043
▁placed	-4044
▁attract	-4045
▁Venezuel	-4046
aka	-4047
imum	-4048
aries	-4049
▁During	-4050
▁eastern	-4051
▁shortly	-4052
▁complete	-4053
▁Manchester	-4054
DC	-4055
apt	-4056
alls	-4057
clus	-4058
kins	-4059
ureau	-4060
celona	-4061
ickets	-4062
▁tells	-4063
▁trade	-4064
▁Rights	-4065
▁proced	-4066
▁Kennedy	-4067
▁approach	-4068
▁pressure	-4069
▁traffick	-4070
▁production	-4071
▁Republicans	-4072
syl	-4073
▁jet	-4074
achus	-4075
iance	-4076
▁Mike	-4077
asters	-4078
ructure	-4079
▁figure	-4080
achusetts	-4081
▁Hospital	-4082
ills	-4083
▁Mah	-4084
▁Osc	-4085
ipped	-4086
▁Cuba	-4087
▁Open	-4088
sylvan	-4089
▁Beach	-4090
▁Dubai	-4091
▁Lanka	-4092
▁regular	-4093
▁refugees	-4094
▁Meanwhile	-4095
▁particularly	-4096
pris	-4097
▁Rod	-4098
▁broken	-4099
▁Anthony	-4100
5,	-4101
IC	-4102
add	-4103
▁Kn	-4104
born	-4105
term	-4106
▁Mel	-4107
ender	-4108
▁Kurd	-4109
▁bail	-4110
▁alive	-4111
▁behav	-4112
▁sense	-4113
▁shown	-4114
sylvania	-4115
▁committed	-4116
▁announcement	-4117
ikh	-4118
▁By	-4119
omen	-4120
pson	-4121
▁Far	-4122
ennis	-4123
▁Face	-4124
▁Stud	-4125
▁cast	-4126
▁plot	-4127
▁seed	-4128
▁true	-4129
▁vacc	-4130
▁Gates	-4131
▁Grand	-4132
▁Phill	-4133
▁Wilson	-4134
▁ensure	-4135
▁relief	-4136
cknowled	-4137
set	-4138
uals	-4139
andon	-4140
▁Prot	-4141
▁Canad	-4142
▁loved	-4143
▁Valley	-4144
▁facing	-4145
▁insurg	-4146
▁Hillary	-4147
▁talking	-4148
ux	-4149
aval	-4150
▁Die	-4151
ilipp	-4152
▁exist	-4153
▁noted	-4154
▁screen	-4155
▁ability	-4156
▁arrests	-4157
▁conspir	-4158
▁property	-4159
bo	-4160
ini	-4161
▁Im	-4162
resp	-4163
unte	-4164
▁gay	-4165
▁Alab	-4166
▁hurt	-4167
uction	-4168
▁sales	-4169
▁rather	-4170
▁sports	-4171
▁acknowled	-4172
▁Massachusetts	-4173
:30	-4174
erc	-4175
ume	-4176
oyal	-4177
▁Lat	-4178
▁Star	-4179
▁accom	-4180
▁sides	-4181
▁seized	-4182
▁Western	-4183
▁movement	-4184
▁Barcelona	-4185
▁32	-4186
fect	-4187
iced	-4188
oking	-4189
▁dism	-4190
▁emot	-4191
▁alone	-4192
▁guard	-4193
▁defeat	-4194
▁pretty	-4195
▁contest	-4196
▁quarter	-4197
▁conducted	-4198
onn	-4199
▁Rev	-4200
▁bul	-4201
aches	-4202
▁Beck	-4203
▁rule	-4204
ources	-4205
▁violent	-4206
▁powerful	-4207
▁appearance	-4208
▁Pennsylvania	-4209
BA	-4210
TA	-4211
alt	-4212
▁Vi	-4213
asts	-4214
back	-4215
▁Win	-4216
▁gre	-4217
▁Johnson	-4218
▁changes	-4219
▁manufact	-4220
▁planning	-4221
bl	-4222
abin	-4223
▁300	-4224
▁ice	-4225
▁sens	-4226
▁surf	-4227
▁kilome	-4228
▁offers	-4229
▁streng	-4230
▁waters	-4231
▁missile	-4232
▁ongoing	-4233
▁village	-4234
▁required	-4235
dd	-4236
▁Bur	-4237
▁uns	-4238
essor	-4239
▁rare	-4240
▁Dutch	-4241
▁seems	-4242
▁territ	-4243
▁damaged	-4244
▁independent	-4245
▁($	-4246
▁Net	-4247
▁Midd	-4248
▁Prem	-4249
▁lose	-4250
▁runs	-4251
▁Chris	-4252
▁Feder	-4253
▁costs	-4254
imately	-4255
▁Street	-4256
▁condem	-4257
▁Alabama	-4258
▁sometimes	-4259
▁HI	-4260
▁Not	-4261
▁sil	-4262
aging	-4263
arked	-4264
▁vice	-4265
▁Clark	-4266
▁built	-4267
▁pregn	-4268
▁voice	-4269
▁patrol	-4270
▁stimul	-4271
▁beginning	-4272
▁explosion	-4273
▁Investigators	-4274
ni	-4275
rie	-4276
prof	-4277
yond	-4278
▁Kat	-4279
▁Rad	-4280
▁guy	-4281
eared	-4282
▁exch	-4283
▁lines	-4284
▁paper	-4285
▁belong	-4286
▁beyond	-4287
▁budget	-4288
▁waiting	-4289
▁commander	-4290
▁immediate	-4291
upp	-4292
ager	-4293
izes	-4294
zona	-4295
▁bid	-4296
▁cho	-4297
apers	-4298
ctions	-4299
▁Child	-4300
▁origin	-4301
bassador	-4302
▁Despite	-4303
▁fashion	-4304
▁Colorado	-4305
▁Argentina	-4306
▁previously	-4307
▁AT	-4308
▁Ag	-4309
What	-4310
arez	-4311
ette	-4312
long	-4313
raud	-4314
▁Are	-4315
▁Tay	-4316
▁Good	-4317
▁blog	-4318
▁harm	-4319
▁onto	-4320
▁spir	-4321
▁purch	-4322
▁acting	-4323
▁pulled	-4324
▁seeing	-4325
irt	-4326
ears	-4327
▁Spe	-4328
▁cop	-4329
▁nar	-4330
▁san	-4331
ijing	-4332
rison	-4333
▁hair	-4334
ecause	-4335
ipment	-4336
▁Hamas	-4337
▁deputy	-4338
▁pleaded	-4339
▁buildings	-4340
aug	-4341
err	-4342
pts	-4343
▁80	-4344
▁AC	-4345
▁Ant	-4346
▁arg	-4347
▁wre	-4348
asion	-4349
▁Cons	-4350
▁Mont	-4351
▁Week	-4352
▁Franc	-4353
▁contr	-4354
▁wouldn	-4355
▁candidate	-4356
sts	-4357
▁Ty	-4358
inson	-4359
▁2007.	-4360
▁measures	-4361
▁photograph	-4362
har	-4363
▁Tor	-4364
▁2002	-4365
▁Shar	-4366
▁Ocean	-4367
▁Organ	-4368
▁steps	-4369
▁actress	-4370
▁Facebook	-4371
▁Prosecut	-4372
▁chairman	-4373
▁specific	-4374
▁suffering	-4375
▁traveling	-4376
ads	-4377
▁Ts	-4378
ably	-4379
ifth	-4380
sequ	-4381
▁Zel	-4382
▁deg	-4383
▁Rock	-4384
▁firm	-4385
▁Those	-4386
▁floor	-4387
▁Michel	-4388
▁estate	-4389
▁learned	-4390
▁Although	-4391
▁controll	-4392
▁passenger	-4393
▁worldwide	-4394
FA	-4395
argo	-4396
mond	-4397
▁Ram	-4398
▁tow	-4399
ansas	-4400
ashes	-4401
▁Bern	-4402
▁Times	-4403
▁agent	-4404
▁learn	-4405
▁Columb	-4406
▁Marine	-4407
▁higher	-4408
▁mostly	-4409
▁status	-4410
▁eventually	-4411
sych	-4412
▁HIV	-4413
rated	-4414
▁Asia	-4415
▁boys	-4416
▁blamed	-4417
▁temper	-4418
▁Arizona	-4419
▁Pacific	-4420
▁Premier	-4421
▁located	-4422
▁Brazilian	-4423
▁operating	-4424
Our	-4425
▁1.	-4426
aska	-4427
▁Chel	-4428
▁Post	-4429
▁sect	-4430
▁giant	-4431
▁gives	-4432
▁words	-4433
▁museum	-4434
▁approved	-4435
▁flooding	-4436
▁continues	-4437
▁kilometers	-4438
▁professional	-4439
asc	-4440
▁2,	-4441
ares	-4442
▁Haw	-4443
▁amb	-4444
▁din	-4445
▁Carl	-4446
▁Gold	-4447
▁prem	-4448
▁tank	-4449
▁ways	-4450
nessee	-4451
▁Super	-4452
ologist	-4453
▁affect	-4454
▁vessel	-4455
▁entered	-4456
▁domestic	-4457
▁material	-4458
▁starting	-4459
▁equipment	-4460
TS	-4461
dle	-4462
law	-4463
sea	-4464
haps	-4465
month	-4466
▁Sout	-4467
▁easy	-4468
▁page	-4469
▁comed	-4470
▁ships	-4471
istered	-4472
▁secret	-4473
▁Philipp	-4474
▁survived	-4475
▁broadcast	-4476
▁suspended	-4477
▁increasing	-4478
As	-4479
enty	-4480
hold	-4481
▁Eth	-4482
▁Nor	-4483
▁lay	-4484
lines	-4485
▁Cath	-4486
▁Wall	-4487
▁kick	-4488
▁mach	-4489
▁pull	-4490
▁advis	-4491
▁Middle	-4492
▁Beijing	-4493
▁Hussein	-4494
▁figures	-4495
▁Canadian	-4496
▁responded	-4497
ER	-4498
▁Id	-4499
ader	-4500
vert	-4501
▁Pot	-4502
▁Ter	-4503
▁die	-4504
house	-4505
▁Hond	-4506
elling	-4507
▁films	-4508
▁goals	-4509
ictions	-4510
▁middle	-4511
▁Turkish	-4512
▁complet	-4513
▁targeted	-4514
ova	-4515
rec	-4516
erve	-4517
ander	-4518
▁Also	-4519
▁Vict	-4520
▁size	-4521
▁Under	-4522
▁scored	-4523
▁western	-4524
▁outbreak	-4525
▁physical	-4526
▁Tennessee	-4527
▁organizations	-4528
jad	-4529
acts	-4530
aith	-4531
▁Tib	-4532
▁gat	-4533
▁purs	-4534
▁joint	-4535
▁Flight	-4536
▁inches	-4537
▁robber	-4538
▁Journal	-4539
▁teacher	-4540
▁detained	-4541
▁reportedly	-4542
icts	-4543
▁lab	-4544
▁sun	-4545
▁Cole	-4546
▁unit	-4547
ernand	-4548
▁crack	-4549
▁exact	-4550
▁answer	-4551
▁satell	-4552
▁simply	-4553
▁commercial	-4554
han	-4555
▁FAA	-4556
▁Mac	-4557
▁Reg	-4558
anded	-4559
▁drop	-4560
▁1,000	-4561
itation	-4562
▁Taylor	-4563
▁double	-4564
ification	-4565
portation	-4566
▁disaster	-4567
▁programs	-4568
lah	-4569
elly	-4570
owed	-4571
▁Tim	-4572
▁dig	-4573
▁hun	-4574
▁van	-4575
state	-4576
▁opin	-4577
▁Jones	-4578
▁above	-4579
▁auction	-4580
▁college	-4581
▁picture	-4582
▁removed	-4583
▁volunte	-4584
▁repeated	-4585
▁initially	-4586
ga	-4587
tt	-4588
▁hy	-4589
life	-4590
▁Ros	-4591
▁Matt	-4592
▁arch	-4593
▁task	-4594
lement	-4595
▁Mount	-4596
▁bombs	-4597
▁intro	-4598
▁buried	-4599
▁obtain	-4600
▁computer	-4601
▁Government	-4602
20	-4603
40	-4604
▁Di	-4605
iple	-4606
▁Tour	-4607
▁Palin	-4608
▁youth	-4609
▁detain	-4610
▁severe	-4611
▁Charles	-4612
▁Indones	-4613
▁politics	-4614
▁insurance	-4615
▁$8	-4616
icip	-4617
mate	-4618
▁Sur	-4619
▁der	-4620
attle	-4621
ulate	-4622
urray	-4623
▁note	-4624
▁Diego	-4625
▁meant	-4626
▁headed	-4627
▁intern	-4628
▁losing	-4629
▁stories	-4630
▁behavior	-4631
▁offensive	-4632
ORK	-4633
▁Lt	-4634
▁Mag	-4635
acing	-4636
ading	-4637
eless	-4638
▁Cast	-4639
▁Swed	-4640
▁chem	-4641
▁defin	-4642
▁signs	-4643
▁banned	-4644
▁Central	-4645
▁showing	-4646
▁surpris	-4647
amo	-4648
▁Gh	-4649
▁Bob	-4650
▁bra	-4651
▁YORK	-4652
▁Tibet	-4653
▁Colombia	-4654
▁pictures	-4655
▁stimulus	-4656
▁apartment	-4657
▁Palestinian	-4658
▁disappeared	-4659
ship	-4660
▁Sea	-4661
ample	-4662
▁flag	-4663
▁insp	-4664
lahoma	-4665
anguage	-4666
vention	-4667
▁suspic	-4668
▁feeling	-4669
▁testing	-4670
▁prosecutor	-4671
ocr	-4672
▁$5	-4673
amine	-4674
ounts	-4675
▁dark	-4676
▁Chile	-4677
▁fighters	-4678
▁gathered	-4679
▁committee	-4680
▁necessary	-4681
EA	-4682
ami	-4683
oph	-4684
iano	-4685
oked	-4686
rang	-4687
owers	-4688
▁elected	-4689
▁politic	-4690
▁willing	-4691
▁terrorists	-4692
ols	-4693
▁arm	-4694
▁pra	-4695
board	-4696
▁argu	-4697
ailand	-4698
inejad	-4699
▁abduct	-4700
▁houses	-4701
▁reality	-4702
▁Thailand	-4703
▁Louisiana	-4704
▁relatives	-4705
▁journalists	-4706
OP	-4707
ria	-4708
▁Lu	-4709
cont	-4710
▁wid	-4711
eland	-4712
▁Barb	-4713
▁2006.	-4714
▁aware	-4715
▁flying	-4716
▁finding	-4717
▁Oklahoma	-4718
▁activity	-4719
▁declined	-4720
▁describe	-4721
▁university	-4722
60	-4723
coh	-4724
rah	-4725
well	-4726
▁Lev	-4727
▁pet	-4728
▁urg	-4729
▁wed	-4730
isher	-4731
▁blue	-4732
▁Davis	-4733
▁beach	-4734
▁daily	-4735
▁fresh	-4736
▁rebel	-4737
▁Andrew	-4738
▁weight	-4739
▁express	-4740
▁rescued	-4741
▁militant	-4742
▁practice	-4743
▁visitors	-4744
ros	-4745
▁45	-4746
burg	-4747
▁Abu	-4748
▁Fin	-4749
iling	-4750
where	-4751
ointed	-4752
vement	-4753
▁faced	-4754
related	-4755
▁Muslims	-4756
▁collaps	-4757
▁warrant	-4758
▁insurgents	-4759
aze	-4760
mark	-4761
▁Mot	-4762
▁ult	-4763
ronic	-4764
▁Then	-4765
▁Vick	-4766
▁Murray	-4767
▁growth	-4768
▁Interior	-4769
▁veterans	-4770
▁withdraw	-4771
▁leadership	-4772
.4	-4773
ein	-4774
mas	-4775
nic	-4776
▁ic	-4777
ites	-4778
▁Van	-4779
▁fan	-4780
▁Comp	-4781
▁Knox	-4782
ewhere	-4783
ouston	-4784
▁First	-4785
▁raise	-4786
▁range	-4787
▁camera	-4788
quarters	-4789
▁Chelsea	-4790
▁century	-4791
▁charity	-4792
▁illness	-4793
▁produced	-4794
▁journalist	-4795
fur	-4796
▁70	-4797
▁CIA	-4798
▁Den	-4799
▁Fil	-4800
▁Sol	-4801
▁mph	-4802
▁Peru	-4803
▁Well	-4804
utions	-4805
▁fraud	-4806
▁holid	-4807
▁knows	-4808
▁motor	-4809
▁Daniel	-4810
▁survey	-4811
▁Houston	-4812
▁serving	-4813
▁hurricane	-4814
▁incidents	-4815
aves	-4816
▁Pet	-4817
▁Live	-4818
▁gang	-4819
▁pair	-4820
▁sort	-4821
isters	-4822
▁panel	-4823
▁landed	-4824
ographer	-4825
▁culture	-4826
▁example	-4827
▁freedom	-4828
▁version	-4829
▁survivors	-4830
yl	-4831
leg	-4832
unk	-4833
▁Ev	-4834
▁Sl	-4835
▁UN	-4836
unch	-4837
▁Jon	-4838
▁Food	-4839
▁seat	-4840
▁2008.	-4841
▁restr	-4842
▁lawsuit	-4843
▁Ahmadinejad	-4844
ube	-4845
▁Ars	-4846
▁Teh	-4847
riate	-4848
▁Scot	-4849
▁Zeal	-4850
▁hang	-4851
▁mort	-4852
▁exerc	-4853
▁fatal	-4854
▁psych	-4855
▁stuff	-4856
▁species	-4857
▁separate	-4858
LES	-4859
ipe	-4860
pat	-4861
war	-4862
▁cat	-4863
itary	-4864
itzer	-4865
ubble	-4866
▁roll	-4867
illing	-4868
▁Oscar	-4869
viously	-4870
▁indict	-4871
▁measure	-4872
▁visited	-4873
▁congress	-4874
▁criticized	-4875
4.	-4876
...	-4877
All	-4878
wan	-4879
more	-4880
uild	-4881
▁Five	-4882
▁brain	-4883
▁embassy	-4884
▁funeral	-4885
▁perfect	-4886
▁audience	-4887
▁displaced	-4888
▁providing	-4889
▁protection	-4890
▁restaurant	-4891
eed	-4892
uts	-4893
▁33	-4894
outs	-4895
othing	-4896
▁fully	-4897
stances	-4898
▁voters	-4899
▁finally	-4900
▁telling	-4901
▁coverage	-4902
▁straight	-4903
NGE	-4904
aria	-4905
▁LOS	-4906
▁Shi	-4907
▁max	-4908
▁Hall	-4909
▁Khan	-4910
▁aren	-4911
▁frequ	-4912
▁quite	-4913
▁cancel	-4914
▁covered	-4915
▁initial	-4916
▁hospitalized	-4917
rig	-4918
ardo	-4919
▁Cam	-4920
▁Pel	-4921
▁lic	-4922
▁thr	-4923
▁ANGE	-4924
▁type	-4925
▁upon	-4926
▁Darfur	-4927
▁casual	-4928
▁decide	-4929
▁fought	-4930
▁hoping	-4931
▁ANGELES	-4932
▁striker	-4933
▁messages	-4934
▁certainly	-4935
▁challenges	-4936
▁corruption	-4937
imb	-4938
▁$7	-4939
▁31	-4940
elled	-4941
▁Conn	-4942
▁Nort	-4943
▁Ahmed	-4944
▁gather	-4945
▁suburb	-4946
▁comfort	-4947
▁Michigan	-4948
▁electric	-4949
▁identify	-4950
▁location	-4951
iop	-4952
ouri	-4953
▁Mog	-4954
▁Naz	-4955
▁via	-4956
abeth	-4957
adium	-4958
ented	-4959
▁Kong	-4960
▁2006,	-4961
▁fifth	-4962
▁trust	-4963
▁votes	-4964
▁bridge	-4965
▁circum	-4966
▁herself	-4967
▁criticism	-4968
9.	-4969
inho	-4970
lets	-4971
▁DNA	-4972
▁banks	-4973
▁Lankan	-4974
▁modern	-4975
▁require	-4976
▁younger	-4977
▁mountain	-4978
▁Hurricane	-4979
▁administr	-4980
ext	-4981
agan	-4982
▁ast	-4983
▁bal	-4984
autif	-4985
cohol	-4986
isted	-4987
pping	-4988
▁Hong	-4989
▁gain	-4990
▁sick	-4991
▁tape	-4992
▁Mayor	-4993
▁aimed	-4994
▁divor	-4995
▁inaug	-4996
viation	-4997
▁Tehran	-4998
▁escape	-4999
▁ticket	-5000
▁quality	-5001
▁prepared	-5002
▁Christmas	-5003
▁returning	-5004
▁conspiracy	-5005
vis	-5006
hour	-5007
idel	-5008
▁Nep	-5009
▁Raj	-5010
▁fal	-5011
▁From	-5012
▁grad	-5013
▁sust	-5014
▁Zelaya	-5015
▁dozens	-5016
▁owners	-5017
▁talked	-5018
▁Embassy	-5019
▁complex	-5020
▁monitor	-5021
▁reasons	-5022
▁lawmakers	-5023
▁receiving	-5024
▁recovered	-5025
▁resources	-5026
▁satellite	-5027
oral	-5028
maker	-5029
oston	-5030
otten	-5031
▁Adam	-5032
▁stab	-5033
▁wide	-5034
encing	-5035
ocracy	-5036
▁Nepal	-5037
▁lands	-5038
▁Ethiop	-5039
▁settle	-5040
▁greater	-5041
▁reflect	-5042
▁Maryland	-5043
▁designed	-5044
▁Francisco	-5045
▁remaining	-5046
▁individuals	-5047
▁construction	-5048
No	-5049
Pr	-5050
ta	-5051
ids	-5052
igg	-5053
phy	-5054
hens	-5055
rial	-5056
andal	-5057
▁Myan	-5058
▁clin	-5059
▁perm	-5060
▁2005,	-5061
▁dozen	-5062
▁debris	-5063
▁meters	-5064
▁Lebanon	-5065
▁Medical	-5066
▁selling	-5067
▁memorial	-5068
▁pregnant	-5069
▁completed	-5070
▁estimates	-5071
de	-5072
For	-5073
ias	-5074
iri	-5075
▁EU	-5076
apse	-5077
pool	-5078
▁Arm	-5079
▁Ban	-5080
▁Gal	-5081
▁Six	-5082
▁ess	-5083
▁eye	-5084
ester	-5085
ordan	-5086
▁Liver	-5087
▁faith	-5088
▁wreck	-5089
▁except	-5090
▁videos	-5091
▁Zealand	-5092
▁targets	-5093
▁attended	-5094
▁projects	-5095
▁promised	-5096
▁assistance	-5097
▁facilities	-5098
▁Jo	-5099
acht	-5100
ifer	-5101
ucky	-5102
▁500	-5103
▁Fel	-5104
▁Gib	-5105
▁tal	-5106
phone	-5107
▁Swat	-5108
▁bird	-5109
▁sand	-5110
▁Among	-5111
▁Found	-5112
▁older	-5113
▁resol	-5114
▁Myanmar	-5115
▁Michelle	-5116
▁favorite	-5117
▁prompted	-5118
▁Organization	-5119
ila	-5120
▁Gre	-5121
▁flee	-5122
▁Their	-5123
▁brand	-5124
▁route	-5125
▁spend	-5126
▁spons	-5127
irector	-5128
▁promot	-5129
▁partner	-5130
▁watching	-5131
▁Prosecutors	-5132
▁legislation	-5133
ao	-5134
aks	-5135
osal	-5136
lands	-5137
▁Mumb	-5138
▁ties	-5139
▁weak	-5140
▁cited	-5141
▁Morgan	-5142
▁burned	-5143
▁devast	-5144
▁myself	-5145
▁pirate	-5146
▁unable	-5147
entially	-5148
▁dismiss	-5149
▁introdu	-5150
▁Phillips	-5151
▁compared	-5152
▁territory	-5153
▁businesses	-5154
ym	-5155
oday	-5156
ovic	-5157
▁Tai	-5158
▁sale	-5159
strong	-5160
▁Tiger	-5161
▁diagn	-5162
▁sound	-5163
▁animal	-5164
▁sending	-5165
▁systems	-5166
▁vessels	-5167
▁confident	-5168
▁developed	-5169
▁activities	-5170
Ch	-5171
▁44	-5172
▁Ut	-5173
esty	-5174
itely	-5175
▁Year	-5176
▁dogs	-5177
▁grew	-5178
▁sear	-5179
▁Famil	-5180
▁haven	-5181
▁minor	-5182
▁shock	-5183
▁touch	-5184
autiful	-5185
▁Boston	-5186
▁Juarez	-5187
▁Mumbai	-5188
▁movies	-5189
▁matches	-5190
▁bombings	-5191
▁identity	-5192
▁involving	-5193
▁professor	-5194
▁kidnapping	-5195
sl	-5196
▁Art	-5197
▁Hug	-5198
▁Mun	-5199
▁Nev	-5200
▁Ver	-5201
ademy	-5202
essed	-5203
ously	-5204
▁Even	-5205
▁Over	-5206
▁male	-5207
ulated	-5208
▁Henry	-5209
▁Nancy	-5210
▁advoc	-5211
▁secure	-5212
▁concert	-5213
▁convers	-5214
▁rejected	-5215
▁completely	-5216
▁indictment	-5217
▁scientists	-5218
▁headquarters	-5219
TSB	-5220
dog	-5221
eno	-5222
gra	-5223
▁Uk	-5224
rage	-5225
▁ign	-5226
cious	-5227
utely	-5228
▁dump	-5229
▁scen	-5230
nesota	-5231
▁Alaska	-5232
▁active	-5233
▁choice	-5234
▁deadly	-5235
▁ethnic	-5236
▁rocket	-5237
▁Stephen	-5238
▁coordin	-5239
▁funding	-5240
▁recovery	-5241
▁traveled	-5242
▁controversial	-5243
3.	-5244
▁Os	-5245
▁mos	-5246
▁swe	-5247
▁Wild	-5248
▁eyes	-5249
▁heav	-5250
▁unus	-5251
reland	-5252
▁Safety	-5253
▁altern	-5254
▁detect	-5255
▁lawyers	-5256
▁threats	-5257
▁allowing	-5258
▁possibly	-5259
▁Minnesota	-5260
So	-5261
gl	-5262
aro	-5263
bon	-5264
lig	-5265
anna	-5266
▁Jul	-5267
▁fix	-5268
▁gar	-5269
▁Doct	-5270
▁coff	-5271
▁stem	-5272
coming	-5273
▁Abdul	-5274
▁camps	-5275
▁color	-5276
▁false	-5277
▁owned	-5278
▁recru	-5279
▁shots	-5280
▁voted	-5281
▁walked	-5282
▁Edwards	-5283
▁Ireland	-5284
▁Catholic	-5285
▁partners	-5286
▁tourists	-5287
▁complaint	-5288
▁management	-5289
umm	-5290
ura	-5291
oria	-5292
▁Gra	-5293
▁Meh	-5294
▁Nic	-5295
▁fel	-5296
point	-5297
▁Stan	-5298
▁skin	-5299
▁alert	-5300
▁Commun	-5301
▁conclud	-5302
▁inmates	-5303
▁society	-5304
▁becoming	-5305
▁Liverpool	-5306
▁collapsed	-5307
▁ambassador	-5308
▁individual	-5309
▁controversy	-5310
MA	-5311
iny	-5312
▁36	-5313
▁Mr	-5314
▁ir	-5315
▁Ash	-5316
▁Jay	-5317
▁Rog	-5318
Every	-5319
▁Camb	-5320
▁NTSB	-5321
irates	-5322
▁Cross	-5323
▁seats	-5324
▁object	-5325
▁tempor	-5326
▁effects	-5327
▁perhaps	-5328
▁extremely	-5329
▁recession	-5330
▁regarding	-5331
▁environmental	-5332
ils	-5333
▁GM	-5334
▁195	-5335
alled	-5336
▁pled	-5337
▁Board	-5338
▁funds	-5339
▁smoke	-5340
▁table	-5341
▁Arabia	-5342
▁Shiite	-5343
▁decade	-5344
▁Atlantic	-5345
▁decisions	-5346
▁developing	-5347
▁investigate	-5348
▁firefighters	-5349
bit	-5350
quir	-5351
rier	-5352
▁gall	-5353
▁Larry	-5354
▁Latin	-5355
▁initi	-5356
▁swine	-5357
▁guards	-5358
▁resort	-5359
▁tickets	-5360
▁Services	-5361
▁bringing	-5362
▁disappear	-5363
erb	-5364
▁Sg	-5365
ocal	-5366
▁Bah	-5367
▁spl	-5368
These	-5369
▁Life	-5370
▁Time	-5371
▁autom	-5372
▁recon	-5373
▁squad	-5374
▁picked	-5375
▁wonder	-5376
heastern	-5377
ulations	-5378
▁standing	-5379
cu	-5380
ela	-5381
uan	-5382
king	-5383
mand	-5384
star	-5385
▁Toy	-5386
erous	-5387
upted	-5388
idency	-5389
▁Enter	-5390
▁doubt	-5391
▁citing	-5392
▁pilots	-5393
▁summit	-5394
▁robbery	-5395
▁seconds	-5396
▁traditional	-5397
▁representative	-5398
iar	-5399
▁38	-5400
▁Az	-5401
oner	-5402
▁FDA	-5403
▁Hot	-5404
arant	-5405
level	-5406
udden	-5407
▁feed	-5408
▁hits	-5409
▁lady	-5410
▁path	-5411
▁uses	-5412
▁wood	-5413
ension	-5414
▁Mogad	-5415
▁fires	-5416
izabeth	-5417
▁highly	-5418
▁seemed	-5419
▁original	-5420
▁governments	-5421
IS	-5422
azz	-5423
cow	-5424
ishu	-5425
ogue	-5426
▁Tre	-5427
▁bin	-5428
ategy	-5429
ordon	-5430
right	-5431
▁Civil	-5432
▁Kelly	-5433
▁dress	-5434
▁Jordan	-5435
▁adults	-5436
▁mobile	-5437
▁planes	-5438
▁planet	-5439
▁failure	-5440
▁usually	-5441
▁collapse	-5442
▁employee	-5443
▁policies	-5444
▁Mogadishu	-5445
▁recommend	-5446
bur	-5447
rad	-5448
▁Bh	-5449
▁Ir	-5450
▁Ke	-5451
ords	-5452
▁Kab	-5453
▁mix	-5454
eeper	-5455
ellow	-5456
inger	-5457
▁2010	-5458
▁cuts	-5459
▁text	-5460
lished	-5461
minute	-5462
▁agree	-5463
▁innoc	-5464
▁rough	-5465
▁truth	-5466
▁views	-5467
ighting	-5468
▁Author	-5469
▁campus	-5470
▁larger	-5471
▁proceed	-5472
▁subject	-5473
ali	-5474
ero	-5475
mun	-5476
▁Of	-5477
rees	-5478
▁Rio	-5479
▁eat	-5480
▁sad	-5481
othes	-5482
▁Kaka	-5483
▁Thai	-5484
Prince	-5485
everal	-5486
ipping	-5487
▁Adams	-5488
▁Roman	-5489
▁absol	-5490
▁obser	-5491
ression	-5492
▁killer	-5493
cription	-5494
▁sparked	-5495
▁trouble	-5496
▁Columbia	-5497
▁Scotland	-5498
▁language	-5499
▁Institute	-5500
enh	-5501
hew	-5502
iden	-5503
irai	-5504
town	-5505
vang	-5506
▁Dam	-5507
▁lie	-5508
▁lux	-5509
▁Jenn	-5510
▁Singh	-5511
▁angry	-5512
▁labor	-5513
▁roads	-5514
respond	-5515
▁Though	-5516
▁legend	-5517
▁tested	-5518
▁abandon	-5519
▁maximum	-5520
▁produce	-5521
▁torture	-5522
▁trapped	-5523
▁reserved	-5524
▁resolution	-5525
aire	-5526
emic	-5527
illy	-5528
vals	-5529
▁Cru	-5530
▁GOP	-5531
▁Lew	-5532
▁tim	-5533
lying	-5534
▁Bang	-5535
▁hasn	-5536
▁Asian	-5537
▁Harry	-5538
▁value	-5539
▁Hondur	-5540
▁Report	-5541
▁earned	-5542
vangirai	-5543
▁Southern	-5544
▁Transportation	-5545
BS	-5546
nam	-5547
just	-5548
raig	-5549
ueen	-5550
▁Mur	-5551
▁rap	-5552
▁sor	-5553
prise	-5554
▁corn	-5555
▁wave	-5556
▁Sarah	-5557
▁adult	-5558
estival	-5559
▁native	-5560
▁pieces	-5561
▁causing	-5562
▁putting	-5563
▁unclear	-5564
▁reporter	-5565
▁effective	-5566
▁supporting	-5567
▁communities	-5568
▁2.	-5569
ugee	-5570
▁Aff	-5571
▁Las	-5572
▁Let	-5573
employ	-5574
▁piece	-5575
ography	-5576
▁Reagan	-5577
▁artist	-5578
▁league	-5579
▁reduce	-5580
▁overall	-5581
▁offering	-5582
▁strategy	-5583
▁establish	-5584
▁immigrants	-5585
ray	-5586
uma	-5587
▁BA	-5588
▁Du	-5589
avez	-5590
▁Jer	-5591
▁Nad	-5592
icate	-5593
igned	-5594
▁Read	-5595
▁king	-5596
▁handed	-5597
▁stores	-5598
▁tribut	-5599
▁Airways	-5600
▁shelter	-5601
▁greatest	-5602
▁multiple	-5603
▁seriously	-5604
▁Tsvangirai	-5605
▁conservative	-5606
deg	-5607
▁$6	-5608
fall	-5609
rawn	-5610
▁150	-5611
▁mel	-5612
▁rum	-5613
occer	-5614
pread	-5615
▁Spec	-5616
▁soft	-5617
atever	-5618
▁Steve	-5619
▁Susan	-5620
▁holds	-5621
▁plays	-5622
▁reven	-5623
▁sixth	-5624
▁songs	-5625
▁stret	-5626
▁depart	-5627
▁examin	-5628
▁overse	-5629
▁spirit	-5630
▁affairs	-5631
▁keeping	-5632
▁writing	-5633
▁birthday	-5634
▁historic	-5635
▁tradition	-5636
▁Foundation	-5637
iat	-5638
onz	-5639
aked	-5640
ocks	-5641
▁Nob	-5642
▁Club	-5643
▁Allen	-5644
▁Every	-5645
▁catch	-5646
▁surve	-5647
▁advice	-5648
▁simple	-5649
▁Arsenal	-5650
▁consult	-5651
▁recover	-5652
idespread	-5653
▁Children	-5654
▁Olympics	-5655
▁exchange	-5656
▁provides	-5657
▁thinking	-5658
▁Elizabeth	-5659
▁continuing	-5660
Rep	-5661
egr	-5662
rich	-5663
▁Dal	-5664
▁sky	-5665
▁Show	-5666
▁Test	-5667
degree	-5668
▁Royal	-5669
▁books	-5670
▁domin	-5671
▁exhib	-5672
▁Before	-5673
▁Portug	-5674
▁Taiwan	-5675
▁expand	-5676
▁punish	-5677
▁heading	-5678
▁holiday	-5679
▁annivers	-5680
▁assistant	-5681
▁delivered	-5682
fe	-5683
lers	-5684
ogle	-5685
▁Jac	-5686
▁Ker	-5687
▁Rel	-5688
▁Sil	-5689
▁anc	-5690
▁unl	-5691
agers	-5692
▁acqu	-5693
▁guns	-5694
▁wins	-5695
▁Moore	-5696
▁cease	-5697
▁occup	-5698
▁Moscow	-5699
▁Public	-5700
▁assass	-5701
▁causes	-5702
▁hotels	-5703
▁rising	-5704
▁Program	-5705
▁Roberts	-5706
▁intended	-5707
▁established	-5708
8.	-5709
▁3,	-5710
▁34	-5711
bors	-5712
hand	-5713
rell	-5714
▁Wat	-5715
▁ded	-5716
elect	-5717
osure	-5718
▁Chen	-5719
▁debt	-5720
▁zone	-5721
▁style	-5722
▁troub	-5723
▁Miller	-5724
▁nature	-5725
▁orders	-5726
▁Fernand	-5727
▁Several	-5728
▁beautiful	-5729
▁influence	-5730
zy	-5731
200	-5732
ito	-5733
▁Ay	-5734
rett	-5735
▁Ann	-5736
▁Veg	-5737
▁row	-5738
inary	-5739
ocide	-5740
▁Utah	-5741
▁duty	-5742
onents	-5743
▁Chavez	-5744
▁Steven	-5745
▁allows	-5746
▁tribal	-5747
▁limited	-5748
▁recorded	-5749
▁witnesses	-5750
▁questioned	-5751
▁helicopters	-5752
yo	-5753
ios	-5754
abad	-5755
▁Bow	-5756
▁Sum	-5757
▁ath	-5758
embly	-5759
ledge	-5760
▁Capt	-5761
▁Eric	-5762
▁rein	-5763
▁fears	-5764
▁union	-5765
▁worse	-5766
uration	-5767
▁Gordon	-5768
▁Scient	-5769
▁approp	-5770
▁bomber	-5771
▁Islands	-5772
▁watched	-5773
▁speaking	-5774
▁anniversary	-5775
5.	-5776
tr	-5777
▁42	-5778
▁11,	-5779
azing	-5780
▁Lind	-5781
▁Long	-5782
▁Rome	-5783
antage	-5784
▁boats	-5785
▁cards	-5786
▁argued	-5787
▁device	-5788
▁Marines	-5789
▁counsel	-5790
▁exactly	-5791
▁largely	-5792
▁Venezuela	-5793
▁detainees	-5794
▁organized	-5795
▁struggling	-5796
▁trafficking	-5797
7.	-5798
ds	-5799
rif	-5800
▁km	-5801
aden	-5802
▁Met	-5803
▁Sgt	-5804
▁coc	-5805
iring	-5806
▁prob	-5807
▁purp	-5808
yright	-5809
▁Asked	-5810
▁Bened	-5811
▁artic	-5812
▁frust	-5813
▁smugg	-5814
▁subst	-5815
▁throw	-5816
▁Bureau	-5817
▁Weekly	-5818
▁dispute	-5819
▁scandal	-5820
▁setting	-5821
▁shuttle	-5822
▁survive	-5823
▁vaccine	-5824
▁Director	-5825
▁approval	-5826
▁statements	-5827
▁circumstances	-5828
isa	-5829
ita	-5830
mir	-5831
ctic	-5832
▁Dis	-5833
▁Hud	-5834
▁rat	-5835
▁Beat	-5836
▁Bell	-5837
▁Viet	-5838
▁cold	-5839
atures	-5840
weight	-5841
▁2004,	-5842
▁Anton	-5843
▁Boliv	-5844
▁Radio	-5845
▁These	-5846
▁Vegas	-5847
▁debut	-5848
▁helps	-5849
▁prior	-5850
▁tight	-5851
▁Carter	-5852
▁Nevada	-5853
▁quoted	-5854
▁supply	-5855
▁Officer	-5856
▁Ronaldo	-5857
▁alcohol	-5858
▁critics	-5859
▁explain	-5860
▁sitting	-5861
▁benefits	-5862
▁complain	-5863
▁suggested	-5864
▁candidates	-5865
▁presidency	-5866
▁neighboring	-5867
EN	-5868
ko	-5869
▁Er	-5870
▁Fre	-5871
aling	-5872
chell	-5873
rible	-5874
▁1980	-5875
▁wall	-5876
ourney	-5877
▁Brook	-5878
▁disab	-5879
▁remote	-5880
▁artists	-5881
▁hostage	-5882
▁walking	-5883
▁solution	-5884
▁strength	-5885
▁performed	-5886
▁girlfriend	-5887
▁photographer	-5888
ae	-5889
bro	-5890
ici	-5891
▁Rw	-5892
▁Sa	-5893
ella	-5894
roud	-5895
▁Bus	-5896
▁unp	-5897
athan	-5898
▁Corp	-5899
▁imag	-5900
▁laid	-5901
▁magn	-5902
onight	-5903
▁adopt	-5904
▁clubs	-5905
▁drove	-5906
▁grave	-5907
▁client	-5908
▁sudden	-5909
▁Haitian	-5910
▁refugee	-5911
▁producer	-5912
▁proposed	-5913
▁Colombian	-5914
80	-5915
At	-5916
▁Bas	-5917
▁Maj	-5918
▁Men	-5919
▁pen	-5920
acity	-5921
annel	-5922
gment	-5923
nings	-5924
opher	-5925
▁icon	-5926
▁sons	-5927
orders	-5928
▁blame	-5929
▁dream	-5930
▁solar	-5931
▁stood	-5932
illance	-5933
▁bought	-5934
▁denies	-5935
▁paying	-5936
standing	-5937
▁Simpson	-5938
▁unusual	-5939
▁compound	-5940
▁finished	-5941
LA	-5942
IDS	-5943
▁Bu	-5944
ideo	-5945
▁194	-5946
▁400	-5947
▁Luc	-5948
▁Wal	-5949
▁Oper	-5950
▁Prov	-5951
▁cool	-5952
▁rang	-5953
▁Craig	-5954
▁Lewis	-5955
▁maybe	-5956
▁princ	-5957
▁trees	-5958
▁stands	-5959
▁stress	-5960
▁weapon	-5961
▁worker	-5962
▁escaped	-5963
▁granted	-5964
▁patient	-5965
▁primary	-5966
▁senator	-5967
▁Indonesia	-5968
▁condemned	-5969
▁consumers	-5970
▁independence	-5971
-6	-5972
awn	-5973
apol	-5974
icks	-5975
oves	-5976
uana	-5977
▁mut	-5978
rimin	-5979
▁Jess	-5980
▁Pass	-5981
▁dram	-5982
▁sole	-5983
istics	-5984
rators	-5985
▁Congo	-5986
agement	-5987
▁Berlin	-5988
▁Potter	-5989
▁afford	-5990
▁beaten	-5991
▁regime	-5992
▁winter	-5993
▁section	-5994
▁researchers	-5995
7-	-5996
RE	-5997
cle	-5998
erg	-5999
esh	-6000
▁wa	-6001
elta	-6002
eman	-6003
▁10-	-6004
▁cro	-6005
▁tip	-6006
allas	-6007
elson	-6008
etime	-6009
▁1990	-6010
▁Lake	-6011
▁Town	-6012
▁pool	-6013
abinet	-6014
▁2,000	-6015
▁leaves	-6016
▁wealth	-6017
▁widely	-6018
▁Academy	-6019
▁clothes	-6020
▁Research	-6021
▁chemical	-6022
▁reaction	-6023
olutionary	-6024
▁Thousands	-6025
▁prisoners	-6026
▁possession	-6027
▁possibility	-6028
pet	-6029
antan	-6030
▁Ryan	-6031
▁acts	-6032
▁blow	-6033
▁fish	-6034
▁stun	-6035
▁Exper	-6036
▁Still	-6037
▁boost	-6038
▁Howard	-6039
▁explod	-6040
▁kidney	-6041
▁missed	-6042
▁window	-6043
▁wedding	-6044
▁worried	-6045
▁casualties	-6046
▁involvement	-6047
ARC	-6048
bar	-6049
▁Lib	-6050
▁Tig	-6051
▁fit	-6052
▁tab	-6053
▁upd	-6054
ining	-6055
ishop	-6056
itors	-6057
oving	-6058
▁hate	-6059
▁milk	-6060
▁plea	-6061
ancing	-6062
▁Boyle	-6063
▁Charl	-6064
▁finds	-6065
▁Sheikh	-6066
▁luxury	-6067
antanamo	-6068
▁Beckham	-6069
▁package	-6070
▁directly	-6071
▁emotional	-6072
▁widespread	-6073
▁experienced	-6074
On	-6075
ja	-6076
oa	-6077
bus	-6078
ipl	-6079
keep	-6080
otic	-6081
▁McG	-6082
▁ble	-6083
abies	-6084
ounced	-6085
▁Crist	-6086
▁river	-6087
▁finish	-6088
▁formed	-6089
▁engaged	-6090
▁fighter	-6091
▁meaning	-6092
▁Benedict	-6093
▁breaking	-6094
▁hijacked	-6095
▁thoughts	-6096
▁detention	-6097
▁discovery	-6098
▁everybody	-6099
▁shootings	-6100
▁negotiations	-6101
ba	-6102
mo	-6103
cia	-6104
ius	-6105
tha	-6106
uct	-6107
road	-6108
▁Kir	-6109
▁Sav	-6110
▁Tok	-6111
▁Belg	-6112
▁forg	-6113
▁swim	-6114
▁vari	-6115
ielder	-6116
person	-6117
▁Biden	-6118
▁blaze	-6119
▁crews	-6120
▁wheel	-6121
▁Google	-6122
▁Museum	-6123
▁incred	-6124
▁termin	-6125
▁beating	-6126
▁follows	-6127
▁unknown	-6128
▁veteran	-6129
▁Abdullah	-6130
▁brothers	-6131
▁stations	-6132
▁advantage	-6133
▁indicated	-6134
▁Guantanamo	-6135
▁confidence	-6136
▁immigration	-6137
▁acknowledged	-6138
boy	-6139
eld	-6140
Tube	-6141
▁bow	-6142
▁dad	-6143
▁scr	-6144
antly	-6145
asket	-6146
enses	-6147
pical	-6148
▁Drug	-6149
▁Rice	-6150
▁exam	-6151
▁meth	-6152
▁sees	-6153
enders	-6154
▁Cuban	-6155
▁Games	-6156
▁corre	-6157
▁medic	-6158
▁trail	-6159
▁ending	-6160
▁filled	-6161
▁papers	-6162
▁reward	-6163
▁thinks	-6164
▁YouTube	-6165
▁healthy	-6166
▁supposed	-6167
▁contained	-6168
▁evacuated	-6169
▁Christopher	-6170
6.	-6171
can	-6172
hem	-6173
osi	-6174
▁Ly	-6175
acre	-6176
adel	-6177
ayer	-6178
▁Ark	-6179
▁vul	-6180
▁Case	-6181
▁impl	-6182
▁ring	-6183
▁sets	-6184
▁wake	-6185
▁Tokyo	-6186
▁Women	-6187
ecutive	-6188
▁Hispan	-6189
▁comedy	-6190
▁conver	-6191
▁Barbara	-6192
▁Doctors	-6193
▁journey	-6194
▁knowledge	-6195
bi	-6196
kes	-6197
onna	-6198
▁Hun	-6199
▁Top	-6200
iform	-6201
▁Kash	-6202
▁bags	-6203
▁hall	-6204
▁Santa	-6205
▁leads	-6206
iminary	-6207
▁editor	-6208
▁perman	-6209
▁runway	-6210
▁square	-6211
▁retired	-6212
▁trained	-6213
▁shopping	-6214
▁struggle	-6215
▁explained	-6216
▁northwest	-6217
▁recognize	-6218
▁explosives	-6219
arr	-6220
eph	-6221
rep	-6222
iley	-6223
▁Hav	-6224
▁McK	-6225
empts	-6226
nesty	-6227
▁Mahm	-6228
▁flew	-6229
▁mand	-6230
▁laugh	-6231
▁marks	-6232
▁waste	-6233
▁batter	-6234
▁firing	-6235
▁airports	-6236
▁genocide	-6237
▁difference	-6238
Pe	-6239
gg	-6240
▁CDC	-6241
▁Dou	-6242
▁Gil	-6243
▁Hom	-6244
rance	-6245
uties	-6246
▁2000	-6247
▁Hass	-6248
▁Juan	-6249
▁ages	-6250
▁murd	-6251
▁nurs	-6252
▁tons	-6253
▁heads	-6254
▁semif	-6255
fielder	-6256
ossible	-6257
▁Hudson	-6258
▁astron	-6259
▁shared	-6260
▁Affairs	-6261
▁contamin	-6262
▁features	-6263
▁recalled	-6264
▁visiting	-6265
▁northeast	-6266
▁searching	-6267
▁definitely	-6268
ont	-6269
tra	-6270
ammy	-6271
olen	-6272
▁Boe	-6273
verty	-6274
▁2001	-6275
▁Jane	-6276
▁Leno	-6277
▁Mand	-6278
▁Tony	-6279
▁bond	-6280
▁file	-6281
▁mine	-6282
▁Delta	-6283
▁Space	-6284
▁renew	-6285
▁dinner	-6286
▁judges	-6287
▁pushed	-6288
▁clearly	-6289
▁plastic	-6290
▁poverty	-6291
▁prepare	-6292
▁Islamist	-6293
▁realized	-6294
▁Copyright	-6295
▁attorneys	-6296
▁celebrity	-6297
▁implement	-6298
▁kidnapped	-6299
▁0	-6300
amm	-6301
▁Kl	-6302
▁Su	-6303
izer	-6304
oren	-6305
▁Ins	-6306
▁USA	-6307
▁cry	-6308
▁ten	-6309
iders	-6310
ptoms	-6311
▁Near	-6312
▁loan	-6313
▁symb	-6314
emeter	-6315
▁basic	-6316
▁bound	-6317
▁users	-6318
issions	-6319
▁Cooper	-6320
▁Pelosi	-6321
▁eating	-6322
▁wounds	-6323
▁Kurdish	-6324
▁citizen	-6325
▁mention	-6326
▁towards	-6327
▁unemploy	-6328
▁contacted	-6329
▁reporting	-6330
▁surrounding	-6331
2-	-6332
2.	-6333
do	-6334
den	-6335
inn	-6336
kel	-6337
umn	-6338
▁7.	-6339
gedy	-6340
idav	-6341
▁Rey	-6342
stein	-6343
usted	-6344
▁Brad	-6345
▁Marc	-6346
▁Omar	-6347
▁neck	-6348
▁Staff	-6349
▁Video	-6350
▁overs	-6351
▁proud	-6352
▁rally	-6353
▁surre	-6354
▁Dallas	-6355
▁Tigers	-6356
▁option	-6357
▁trains	-6358
▁founder	-6359
▁tribute	-6360
▁canceled	-6361
▁creating	-6362
▁findings	-6363
▁regional	-6364
▁tropical	-6365
▁hospitals	-6366
▁referring	-6367
▁surprised	-6368
▁insurgency	-6369
▁originally	-6370
▁cooperation	-6371
avi	-6372
ker	-6373
ora	-6374
evin	-6375
onym	-6376
vised	-6377
▁Ross	-6378
▁coup	-6379
▁diss	-6380
▁lung	-6381
▁tree	-6382
People	-6383
ijuana	-6384
▁cargo	-6385
▁prove	-6386
▁trend	-6387
▁bottom	-6388
▁slight	-6389
▁unique	-6390
▁focused	-6391
▁Missouri	-6392
▁Northern	-6393
▁peaceful	-6394
▁Armstrong	-6395
▁appropriate	-6396
iab	-6397
vol	-6398
▁Dj	-6399
▁FI	-6400
▁Li	-6401
irty	-6402
ware	-6403
▁Hay	-6404
▁Mir	-6405
▁Old	-6406
▁pal	-6407
worth	-6408
▁Arch	-6409
▁Laur	-6410
▁Serb	-6411
▁Work	-6412
▁prec	-6413
ements	-6414
father	-6415
▁crown	-6416
▁diver	-6417
▁hoped	-6418
▁ocean	-6419
▁upset	-6420
▁scores	-6421
▁talent	-6422
▁happens	-6423
▁minority	-6424
▁surprise	-6425
▁describes	-6426
▁commitment	-6427
▁Commissioner	-6428
OM	-6429
uer	-6430
anks	-6431
ayne	-6432
reci	-6433
▁Lyn	-6434
▁Mat	-6435
▁lob	-6436
▁nor	-6437
inals	-6438
leans	-6439
▁Emer	-6440
▁Gonz	-6441
profit	-6442
▁Hotel	-6443
▁Kevin	-6444
▁limit	-6445
▁moves	-6446
▁rival	-6447
▁score	-6448
▁behalf	-6449
▁county	-6450
▁stayed	-6451
▁tennis	-6452
aughters	-6453
▁Connect	-6454
▁achieve	-6455
▁pending	-6456
▁inspired	-6457
▁roadside	-6458
▁sanctions	-6459
▁restrictions	-6460
adi	-6461
▁4,	-6462
▁Us	-6463
icut	-6464
umed	-6465
▁Ell	-6466
anced	-6467
quare	-6468
▁ride	-6469
▁Front	-6470
▁motiv	-6471
▁teach	-6472
atively	-6473
▁10,000	-6474
▁Family	-6475
▁advert	-6476
▁babies	-6477
▁remind	-6478
▁Orleans	-6479
▁amazing	-6480
▁centers	-6481
▁cleared	-6482
▁cocaine	-6483
▁dealing	-6484
▁farmers	-6485
▁machine	-6486
▁managed	-6487
▁reduced	-6488
▁accepted	-6489
▁capacity	-6490
▁clothing	-6491
▁interrog	-6492
▁publicly	-6493
▁boyfriend	-6494
▁democracy	-6495
▁foundation	-6496
lee	-6497
oca	-6498
ras	-6499
away	-6500
boat	-6501
okes	-6502
▁20-	-6503
▁Abb	-6504
▁Big	-6505
arian	-6506
eline	-6507
owned	-6508
raine	-6509
▁FARC	-6510
▁Fred	-6511
▁drew	-6512
▁guys	-6513
▁Corps	-6514
▁Kabul	-6515
▁Garcia	-6516
▁Iraqis	-6517
▁Jewish	-6518
▁Mother	-6519
▁Sandra	-6520
▁Sowell	-6521
▁exclus	-6522
▁lights	-6523
▁rivals	-6524
▁cartels	-6525
▁remarks	-6526
▁stadium	-6527
▁Lebanese	-6528
▁numerous	-6529
▁overturn	-6530
▁proposal	-6531
▁presented	-6532
▁absolutely	-6533
▁transition	-6534
▁surveillance	-6535
▁disappearance	-6536
IT	-6537
▁5.	-6538
Shab	-6539
shire	-6540
uster	-6541
▁Kath	-6542
▁Mess	-6543
▁Nazi	-6544
▁brut	-6545
▁dial	-6546
▁epis	-6547
iamond	-6548
ifying	-6549
▁Jason	-6550
▁Share	-6551
▁Stone	-6552
▁equal	-6553
▁prize	-6554
ference	-6555
▁deeply	-6556
▁encoun	-6557
▁guests	-6558
▁integr	-6559
▁mental	-6560
▁mosque	-6561
▁trucks	-6562
▁vulner	-6563
▁footage	-6564
▁markets	-6565
▁smaller	-6566
▁transpl	-6567
▁announce	-6568
▁attempts	-6569
▁familiar	-6570
▁overseas	-6571
▁priority	-6572
▁yourself	-6573
▁telephone	-6574
▁investment	-6575
imp	-6576
raf	-6577
▁43	-6578
▁75	-6579
▁Ug	-6580
▁21,	-6581
▁hat	-6582
▁mud	-6583
▁Move	-6584
▁torn	-6585
▁wore	-6586
iences	-6587
▁glass	-6588
▁liber	-6589
▁teens	-6590
▁bullet	-6591
▁fallen	-6592
▁phones	-6593
▁stolen	-6594
▁Mahmoud	-6595
▁drivers	-6596
▁fishing	-6597
▁promise	-6598
▁authority	-6599
▁midfielder	-6600
▁repeatedly	-6601
▁Connecticut	-6602
▁contractors	-6603
▁politicians	-6604
▁prosecution	-6605
Is	-6606
kin	-6607
omes	-6608
rast	-6609
will	-6610
stead	-6611
uther	-6612
▁Gall	-6613
▁Rick	-6614
▁Vice	-6615
▁Muham	-6616
western	-6617
▁arrive	-6618
▁piracy	-6619
ointment	-6620
▁Kingdom	-6621
▁Society	-6622
▁bombers	-6623
▁routine	-6624
▁Memorial	-6625
▁claiming	-6626
▁disputed	-6627
▁publicist	-6628
▁generation	-6629
▁procedures	-6630
▁Philippines	-6631
▁electricity	-6632
isf	-6633
oom	-6634
▁3-	-6635
week	-6636
▁Deb	-6637
▁tor	-6638
apore	-6639
iment	-6640
sters	-6641
uters	-6642
▁Hamp	-6643
▁Lock	-6644
▁orph	-6645
▁ster	-6646
action	-6647
insula	-6648
▁Great	-6649
▁accus	-6650
▁chain	-6651
▁goods	-6652
▁illeg	-6653
▁polls	-6654
▁spect	-6655
▁Joseph	-6656
▁inquir	-6657
▁Because	-6658
▁Control	-6659
▁accompl	-6660
▁aggress	-6661
▁content	-6662
▁degrees	-6663
▁opinion	-6664
▁tragedy	-6665
▁turning	-6666
▁Singapore	-6667
▁positions	-6668
▁structure	-6669
▁manufactur	-6670
▁demonstrations	-6671
awi	-6672
▁ut	-6673
....	-6674
bean	-6675
illo	-6676
▁Raf	-6677
▁tom	-6678
burgh	-6679
works	-6680
▁1970	-6681
aleigh	-6682
etroit	-6683
▁Maria	-6684
▁Nobel	-6685
▁discl	-6686
▁feels	-6687
▁greet	-6688
▁towns	-6689
▁worry	-6690
resents	-6691
▁Carlos	-6692
▁Toyota	-6693
▁Detroit	-6694
▁Kashmir	-6695
▁burning	-6696
▁couples	-6697
▁cutting	-6698
▁display	-6699
▁falling	-6700
▁strateg	-6701
▁strikes	-6702
▁uniform	-6703
▁welcome	-6704
▁Arkansas	-6705
▁resigned	-6706
▁happening	-6707
▁interests	-6708
▁neighbors	-6709
▁overnight	-6710
▁preparing	-6711
▁requested	-6712
▁recognized	-6713
▁registered	-6714
utr	-6715
zai	-6716
▁Dug	-6717
▁Pit	-6718
▁Put	-6719
▁Sov	-6720
▁tie	-6721
▁tox	-6722
aters	-6723
ollah	-6724
▁Aden	-6725
▁Each	-6726
▁bath	-6727
▁iRep	-6728
▁tied	-6729
idavit	-6730
istent	-6731
▁2003,	-6732
▁Colle	-6733
▁Seven	-6734
▁delay	-6735
▁doors	-6736
▁entry	-6737
▁Forces	-6738
▁Grammy	-6739
▁brings	-6740
▁dating	-6741
▁council	-6742
▁devices	-6743
▁divorce	-6744
▁mistake	-6745
itzerland	-6746
▁meetings	-6747
▁reaching	-6748
▁resulted	-6749
▁attending	-6750
▁violation	-6751
▁correspond	-6752
▁alternative	-6753
▁Entertainment	-6754
Af	-6755
jan	-6756
yal	-6757
▁48	-6758
▁Wy	-6759
eras	-6760
itan	-6761
roat	-6762
▁Has	-6763
idden	-6764
imony	-6765
press	-6766
▁Chad	-6767
▁beef	-6768
▁ment	-6769
▁verd	-6770
▁wish	-6771
▁acres	-6772
▁deton	-6773
emetery	-6774
▁Garrid	-6775
▁cartel	-6776
▁closer	-6777
▁coffee	-6778
▁hijack	-6779
▁reveal	-6780
▁license	-6781
▁rebuild	-6782
▁replace	-6783
▁singing	-6784
▁Peterson	-6785
▁indicted	-6786
▁vacation	-6787
▁whatever	-6788
▁travelers	-6789
▁approached	-6790
▁nationwide	-6791
▁Switzerland	-6792
▁destruction	-6793
▁communications	-6794
▁representatives	-6795
15	-6796
45	-6797
An	-6798
ww	-6799
zz	-6800
sun	-6801
▁PA	-6802
ooth	-6803
▁Int	-6804
▁USS	-6805
▁log	-6806
▁pip	-6807
▁sam	-6808
usion	-6809
▁Base	-6810
▁Glob	-6811
▁Icel	-6812
▁Sull	-6813
▁cock	-6814
▁ends	-6815
▁reun	-6816
▁warm	-6817
▁Domin	-6818
▁medal	-6819
▁shoes	-6820
ections	-6821
winning	-6822
▁marked	-6823
▁remove	-6824
▁select	-6825
▁Iceland	-6826
▁Vietnam	-6827
▁appreci	-6828
▁awarded	-6829
▁failing	-6830
▁science	-6831
▁deployed	-6832
▁symptoms	-6833
▁concluded	-6834
▁diagnosed	-6835
rastructure	-6836
▁volunteers	-6837
RA	-6838
ira	-6839
ahar	-6840
anny	-6841
chen	-6842
gage	-6843
icit	-6844
mann	-6845
pper	-6846
rapy	-6847
whel	-6848
▁Edu	-6849
▁Rom	-6850
ighth	-6851
▁Home	-6852
▁Love	-6853
▁Sean	-6854
▁gift	-6855
▁grab	-6856
▁roof	-6857
▁deals	-6858
▁stock	-6859
▁Castro	-6860
▁Warren	-6861
▁gunmen	-6862
▁100,000	-6863
▁Ukraine	-6864
▁ancient	-6865
▁prayers	-6866
▁privacy	-6867
▁activist	-6868
▁directed	-6869
▁apologized	-6870
▁diplomatic	-6871
▁interviewed	-6872
Ar	-6873
equ	-6874
pol	-6875
look	-6876
oned	-6877
page	-6878
thur	-6879
▁Aut	-6880
▁Det	-6881
▁dry	-6882
▁era	-6883
agues	-6884
ingly	-6885
▁FIFA	-6886
▁Hear	-6887
▁Only	-6888
▁caps	-6889
▁fort	-6890
▁mask	-6891
▁unve	-6892
▁Dalai	-6893
▁airpl	-6894
▁Awards	-6895
▁Cambod	-6896
▁Stiles	-6897
▁affair	-6898
▁felony	-6899
▁proved	-6900
utrition	-6901
▁Cabinet	-6902
▁Patrick	-6903
▁closely	-6904
▁concent	-6905
▁discipl	-6906
▁heavily	-6907
▁parking	-6908
▁downtown	-6909
▁Islamabad	-6910
▁targeting	-6911
▁Blackwater	-6912
▁settlement	-6913
▁Palestinians	-6914
ika	-6915
isp	-6916
oyd	-6917
ram	-6918
sen	-6919
mosp	-6920
onom	-6921
phia	-6922
▁ABC	-6923
▁obs	-6924
ranch	-6925
▁Pres	-6926
▁emph	-6927
▁heat	-6928
▁plat	-6929
angers	-6930
▁2001,	-6931
▁Eight	-6932
▁rains	-6933
▁saved	-6934
▁split	-6935
▁stick	-6936
▁write	-6937
areness	-6938
▁courts	-6939
▁notice	-6940
adelphia	-6941
▁Helmand	-6942
▁housing	-6943
▁intense	-6944
▁opposed	-6945
▁instruct	-6946
▁recording	-6947
▁defendants	-6948
▁permission	-6949
▁considering	-6950
▁documentary	-6951
▁temperatures	-6952
90	-6953
ED	-6954
GH	-6955
enz	-6956
hol	-6957
▁4.	-6958
▁Ha	-6959
bell	-6960
ippi	-6961
wise	-6962
▁15-	-6963
▁Out	-6964
▁Pop	-6965
ength	-6966
place	-6967
▁Ever	-6968
▁Kent	-6969
▁Leon	-6970
▁Nick	-6971
▁Snow	-6972
▁raid	-6973
▁rail	-6974
▁reop	-6975
▁tack	-6976
ported	-6977
▁Simon	-6978
casters	-6979
▁Hassan	-6980
▁Nelson	-6981
▁humans	-6982
▁memory	-6983
▁retire	-6984
▁suffer	-6985
▁Matthew	-6986
▁balance	-6987
▁Muhammad	-6988
▁abducted	-6989
▁exploded	-6990
▁missiles	-6991
▁religion	-6992
▁daughters	-6993
▁locations	-6994
▁officially	-6995
▁Philadelphia	-6996
▁championship	-6997
▁opportunities	-6998
cot	-6999
sis	-7000
With	-7001
aken	-7002
heim	-7003
olas	-7004
osen	-7005
▁Sot	-7006
aming	-7007
tered	-7008
▁Foot	-7009
▁Lama	-7010
▁Brian	-7011
▁Laura	-7012
▁deleg	-7013
▁metal	-7014
▁Deputy	-7015
▁instit	-7016
▁retail	-7017
▁struct	-7018
poration	-7019
▁Federer	-7020
▁article	-7021
▁benefit	-7022
▁compete	-7023
▁hundred	-7024
▁battling	-7025
▁function	-7026
▁connected	-7027
▁southeast	-7028
▁convention	-7029
▁represents	-7030
▁successfully	-7031
▁transportation	-7032
To	-7033
ema	-7034
care	-7035
hatt	-7036
ouss	-7037
▁McL	-7038
▁Tro	-7039
▁flo	-7040
▁map	-7041
ikely	-7042
itime	-7043
▁pope	-7044
▁porn	-7045
▁Water	-7046
▁basis	-7047
▁pitch	-7048
▁rates	-7049
▁rural	-7050
itchell	-7051
▁Calder	-7052
▁Poland	-7053
▁dispat	-7054
ordinary	-7055
▁Company	-7056
▁analyst	-7057
▁apology	-7058
▁delayed	-7059
▁options	-7060
▁spotted	-7061
▁tourist	-7062
▁changing	-7063
▁exercise	-7064
▁homeless	-7065
▁improved	-7066
▁replaced	-7067
▁survivor	-7068
▁standards	-7069
▁impossible	-7070
▁restaurants	-7071
▁inauguration	-7072
How	-7073
ien	-7074
oln	-7075
▁Bo	-7076
▁Up	-7077
anut	-7078
chor	-7079
mile	-7080
vest	-7081
annah	-7082
ivity	-7083
orrow	-7084
rence	-7085
under	-7086
▁Bark	-7087
▁fant	-7088
▁tsun	-7089
mitted	-7090
▁Delhi	-7091
▁Ghana	-7092
▁Grace	-7093
▁error	-7094
ategory	-7095
▁approx	-7096
▁assess	-7097
▁corner	-7098
▁income	-7099
▁compens	-7100
▁guarant	-7101
▁session	-7102
▁Hundreds	-7103
▁drinking	-7104
▁obtained	-7105
▁celebrate	-7106
▁infrastructure	-7107
gic	-7108
lyn	-7109
was	-7110
▁65	-7111
▁OK	-7112
▁PM	-7113
otti	-7114
▁1-0	-7115
▁Cur	-7116
▁Mid	-7117
▁gym	-7118
▁mal	-7119
force	-7120
▁flow	-7121
▁isol	-7122
▁prel	-7123
▁shar	-7124
▁2005.	-7125
▁Marsh	-7126
▁Sound	-7127
▁gross	-7128
▁gunsh	-7129
▁probe	-7130
▁roles	-7131
▁surge	-7132
▁tower	-7133
amilton	-7134
▁Rivers	-7135
▁Social	-7136
▁allies	-7137
▁athlet	-7138
▁backed	-7139
▁breast	-7140
▁endors	-7141
▁instru	-7142
▁intent	-7143
▁listed	-7144
▁repair	-7145
▁scenes	-7146
▁videot	-7147
fficient	-7148
▁College	-7149
▁Anderson	-7150
▁cultural	-7151
▁featured	-7152
▁invasion	-7153
▁tensions	-7154
▁Emergency	-7155
▁sentences	-7156
▁conviction	-7157
▁interested	-7158
▁celebrities	-7159
uy	-7160
ums	-7161
zed	-7162
▁6.	-7163
auty	-7164
cers	-7165
opsy	-7166
part	-7167
▁20,	-7168
▁Cas	-7169
▁Ecu	-7170
▁Jen	-7171
▁Les	-7172
▁gor	-7173
▁ped	-7174
icial	-7175
illas	-7176
▁tall	-7177
▁toxic	-7178
acement	-7179
▁Little	-7180
▁Second	-7181
▁adopted	-7182
▁musical	-7183
▁surface	-7184
▁innocent	-7185
▁learning	-7186
▁normally	-7187
▁Authority	-7188
▁Ethiopian	-7189
▁abandoned	-7190
▁affidavit	-7191
▁illegally	-7192
▁obviously	-7193
▁procedure	-7194
▁testimony	-7195
▁conversation	-7196
▁transitional	-7197
10	-7198
dem	-7199
hus	-7200
ige	-7201
▁39	-7202
▁IC	-7203
itol	-7204
reek	-7205
usal	-7206
▁Alv	-7207
▁Its	-7208
▁Jam	-7209
▁Ven	-7210
child	-7211
lando	-7212
liest	-7213
backed	-7214
▁Carib	-7215
▁Swiss	-7216
▁liter	-7217
▁notes	-7218
▁slain	-7219
▁troop	-7220
essions	-7221
issippi	-7222
utation	-7223
▁Arthur	-7224
▁Nether	-7225
▁Watson	-7226
▁jumped	-7227
▁powers	-7228
▁stable	-7229
▁storms	-7230
▁passing	-7231
▁passion	-7232
▁Hamilton	-7233
▁defender	-7234
▁division	-7235
▁somebody	-7236
▁addressed	-7237
▁residence	-7238
▁cy	-7239
atar	-7240
ayor	-7241
azir	-7242
issa	-7243
stri	-7244
▁28,	-7245
▁tap	-7246
▁Ford	-7247
▁cler	-7248
▁legs	-7249
▁scre	-7250
▁subs	-7251
▁tear	-7252
▁thank	-7253
▁Hughes	-7254
▁bigger	-7255
▁choose	-7256
▁packed	-7257
▁parent	-7258
atherine	-7259
ervation	-7260
▁Orlando	-7261
▁regions	-7262
▁shouldn	-7263
▁Military	-7264
▁disabled	-7265
▁Argentine	-7266
▁alongside	-7267
▁sustained	-7268
▁Netherlands	-7269
▁preliminary	-7270
▁congressional	-7271
Al	-7272
di	-7273
odd	-7274
▁7,	-7275
▁Cz	-7276
ache	-7277
amas	-7278
ania	-7279
arch	-7280
esus	-7281
▁24-	-7282
▁911	-7283
▁Cut	-7284
▁Gab	-7285
echan	-7286
ivery	-7287
obody	-7288
oster	-7289
▁Pope	-7290
▁Stew	-7291
▁bear	-7292
▁drag	-7293
▁earn	-7294
▁tend	-7295
▁turb	-7296
▁Hills	-7297
▁Pitts	-7298
▁Serie	-7299
▁dance	-7300
▁gradu	-7301
▁royal	-7302
▁shape	-7303
▁handle	-7304
▁jailed	-7305
iscovery	-7306
strators	-7307
▁Capitol	-7308
▁Garrido	-7309
▁capture	-7310
▁offices	-7311
▁Province	-7312
▁internal	-7313
▁Caribbean	-7314
▁highlight	-7315
▁attempting	-7316
Un	-7317
aki	-7318
osa	-7319
▁(2	-7320
▁30-	-7321
▁Fox	-7322
▁McD	-7323
▁Rub	-7324
▁Son	-7325
▁mig	-7326
annes	-7327
ubbed	-7328
ulous	-7329
▁Film	-7330
▁holy	-7331
rolled	-7332
▁Antar	-7333
▁Heath	-7334
▁Laden	-7335
▁Prize	-7336
▁taxes	-7337
ributed	-7338
▁Denver	-7339
▁Forest	-7340
▁breath	-7341
▁lifted	-7342
▁mainly	-7343
▁Ecuador	-7344
▁Weather	-7345
▁deliber	-7346
▁signing	-7347
▁stepped	-7348
▁Calderon	-7349
▁Football	-7350
▁Mitchell	-7351
▁Sudanese	-7352
▁airlines	-7353
▁demanded	-7354
▁activists	-7355
▁suspicion	-7356
▁testified	-7357
▁Journalist	-7358
▁Mississippi	-7359
▁photographs	-7360
wa	-7361
iao	-7362
una	-7363
▁Av	-7364
ails	-7365
bing	-7366
ello	-7367
irts	-7368
osis	-7369
utto	-7370
yard	-7371
▁rom	-7372
ishes	-7373
▁Cust	-7374
▁Girl	-7375
▁dict	-7376
▁rush	-7377
▁tips	-7378
▁virt	-7379
▁distr	-7380
▁drawn	-7381
▁label	-7382
▁lying	-7383
▁sight	-7384
▁solid	-7385
▁Nearly	-7386
▁Rodrig	-7387
▁begins	-7388
▁chosen	-7389
▁crimin	-7390
▁rumors	-7391
▁Stewart	-7392
▁closing	-7393
▁coroner	-7394
▁moments	-7395
▁scoring	-7396
▁staying	-7397
▁variety	-7398
▁verdict	-7399
formation	-7400
▁Jennifer	-7401
▁accounts	-7402
▁imprison	-7403
▁infected	-7404
▁overwhel	-7405
▁sexually	-7406
▁Discovery	-7407
▁direction	-7408
▁explosive	-7409
▁distribution	-7410
6-	-7411
HO	-7412
PA	-7413
sm	-7414
ozy	-7415
acle	-7416
beat	-7417
cano	-7418
stal	-7419
ycle	-7420
▁Bre	-7421
▁Dak	-7422
▁Dun	-7423
▁Lam	-7424
▁Mao	-7425
inent	-7426
▁Hard	-7427
▁Nine	-7428
▁Sark	-7429
▁nice	-7430
▁wing	-7431
idents	-7432
inated	-7433
rehens	-7434
▁Czech	-7435
▁Today	-7436
▁cable	-7437
▁disag	-7438
▁atmosp	-7439
▁carbon	-7440
▁endang	-7441
▁resume	-7442
▁unless	-7443
▁Seattle	-7444
▁conclus	-7445
▁decline	-7446
▁factors	-7447
▁invited	-7448
▁promote	-7449
▁standard	-7450
▁collision	-7451
▁expensive	-7452
▁supported	-7453
▁wonderful	-7454
▁associated	-7455
▁complained	-7456
▁resignation	-7457
Bl	-7458
Now	-7459
iki	-7460
▁3.	-7461
▁5-	-7462
▁vo	-7463
alez	-7464
arms	-7465
eler	-7466
pass	-7467
▁Bru	-7468
▁Fab	-7469
stone	-7470
▁Part	-7471
▁Youn	-7472
▁none	-7473
terror	-7474
▁Sunni	-7475
▁apart	-7476
▁elder	-7477
▁pilgr	-7478
▁Carson	-7479
▁Travel	-7480
▁degree	-7481
▁elimin	-7482
▁escort	-7483
▁gained	-7484
▁cameras	-7485
▁clashes	-7486
▁consequ	-7487
▁diamond	-7488
▁operate	-7489
▁shocked	-7490
▁humanity	-7491
▁upcoming	-7492
▁wreckage	-7493
▁marijuana	-7494
▁peacekeep	-7495
▁vulnerable	-7496
▁threatening	-7497
▁investigated	-7498
En	-7499
Sp	-7500
ye	-7501
eor	-7502
sey	-7503
uls	-7504
cons	-7505
grav	-7506
pers	-7507
▁Nat	-7508
chest	-7509
▁Andy	-7510
▁Poll	-7511
▁Stat	-7512
▁bars	-7513
▁mile	-7514
▁pand	-7515
incoln	-7516
mother	-7517
▁Terry	-7518
▁Woman	-7519
▁Karzai	-7520
▁Nation	-7521
▁length	-7522
▁narrow	-7523
▁oldest	-7524
▁remark	-7525
▁rubble	-7526
▁spring	-7527
▁underw	-7528
▁Manhatt	-7529
▁crossed	-7530
▁inquiry	-7531
▁install	-7532
▁letters	-7533
▁subsequ	-7534
▁extended	-7535
▁searched	-7536
▁teenager	-7537
▁awareness	-7538
▁infection	-7539
▁intention	-7540
▁protected	-7541
▁regularly	-7542
▁potentially	-7543
▁approximately	-7544
▁constitutional	-7545
300	-7546
ubs	-7547
▁55	-7548
▁IS	-7549
▁Iv	-7550
▁Od	-7551
zing	-7552
▁Tan	-7553
▁ham	-7554
▁jur	-7555
▁ven	-7556
eback	-7557
icing	-7558
▁Bowl	-7559
▁Cost	-7560
▁Once	-7561
▁View	-7562
▁cook	-7563
▁edge	-7564
▁fill	-7565
▁touc	-7566
▁begun	-7567
▁lists	-7568
▁turns	-7569
▁Malays	-7570
▁Samuel	-7571
▁mechan	-7572
election	-7573
▁Instead	-7574
▁correct	-7575
▁engines	-7576
▁smoking	-7577
▁Gonzalez	-7578
▁argument	-7579
▁violated	-7580
▁Manhattan	-7581
▁materials	-7582
▁ministers	-7583
▁introduced	-7584
FL	-7585
aab	-7586
bag	-7587
cue	-7588
▁Hy	-7589
obbs	-7590
▁18-	-7591
▁27,	-7592
▁Bet	-7593
▁Ref	-7594
▁shr	-7595
aples	-7596
▁Best	-7597
endent	-7598
▁Casey	-7599
▁Hawai	-7600
▁Veter	-7601
▁await	-7602
▁meets	-7603
▁shell	-7604
▁Bayern	-7605
▁Bhutto	-7606
▁Boeing	-7607
▁Soviet	-7608
▁abroad	-7609
▁column	-7610
▁factor	-7611
▁models	-7612
▁prohib	-7613
▁racial	-7614
▁tragic	-7615
▁Special	-7616
▁praised	-7617
▁viewers	-7618
▁confront	-7619
▁delivery	-7620
▁negative	-7621
▁referred	-7622
▁southwest	-7623
▁typically	-7624
▁importance	-7625
▁punishment	-7626
▁institutions	-7627
wr	-7628
car	-7629
gun	-7630
sud	-7631
▁47	-7632
etta	-7633
▁Fun	-7634
▁rif	-7635
asure	-7636
gests	-7637
▁AIDS	-7638
▁Cape	-7639
▁Form	-7640
▁Greg	-7641
▁Jean	-7642
▁auto	-7643
▁boss	-7644
▁calm	-7645
▁outf	-7646
▁rans	-7647
▁tact	-7648
ortion	-7649
▁chose	-7650
▁conce	-7651
▁naval	-7652
▁oblig	-7653
▁rapid	-7654
▁waves	-7655
▁Murphy	-7656
▁awards	-7657
▁curren	-7658
▁spoken	-7659
▁anticip	-7660
▁appeals	-7661
▁flooded	-7662
▁raising	-7663
▁realize	-7664
▁slaying	-7665
▁Emirates	-7666
▁Nigerian	-7667
▁arriving	-7668
▁executed	-7669
▁handling	-7670
▁hostages	-7671
▁medicine	-7672
▁requests	-7673
▁suggests	-7674
▁unlikely	-7675
▁Hampshire	-7676
▁defending	-7677
▁magnitude	-7678
▁permanent	-7679
▁struggled	-7680
▁colleagues	-7681
▁ultimately	-7682
▁relationships	-7683
but	-7684
iga	-7685
uez	-7686
▁8,	-7687
▁Ox	-7688
Some	-7689
atem	-7690
ogan	-7691
wick	-7692
▁12-	-7693
▁2-1	-7694
▁McM	-7695
▁jew	-7696
▁ric	-7697
▁ski	-7698
addam	-7699
aving	-7700
▁Dise	-7701
▁Land	-7702
▁Like	-7703
▁Wind	-7704
50,000	-7705
ansion	-7706
▁2004.	-7707
▁Major	-7708
▁Stock	-7709
▁Syria	-7710
▁clash	-7711
▁cloud	-7712
▁yacht	-7713
ivision	-7714
▁Airbus	-7715
▁Mehsud	-7716
▁desper	-7717
▁emphas	-7718
▁inspir	-7719
▁prepar	-7720
▁writer	-7721
▁Sarkozy	-7722
▁classic	-7723
▁dressed	-7724
▁analysts	-7725
▁forecast	-7726
ortunately	-7727
▁execution	-7728
▁conducting	-7729
▁transplant	-7730
▁transferred	-7731
▁representing	-7732
pin	-7733
aman	-7734
ario	-7735
imal	-7736
ixon	-7737
rina	-7738
▁End	-7739
▁ash	-7740
▁fee	-7741
adesh	-7742
anche	-7743
▁adds	-7744
▁clim	-7745
▁hole	-7746
▁rich	-7747
making	-7748
▁2009.	-7749
▁3,000	-7750
▁Jesus	-7751
▁ideas	-7752
▁newly	-7753
ummings	-7754
▁Manuel	-7755
▁Warner	-7756
▁easier	-7757
▁eighth	-7758
▁thanks	-7759
▁titles	-7760
▁autopsy	-7761
▁cricket	-7762
▁demands	-7763
▁founded	-7764
▁imposed	-7765
▁recalls	-7766
▁studies	-7767
▁tornado	-7768
▁aviation	-7769
▁comeback	-7770
▁requires	-7771
▁terrible	-7772
government	-7773
▁Parliament	-7774
▁controlled	-7775
▁surrounded	-7776
Sh	-7777
400	-7778
idi	-7779
rim	-7780
▁37	-7781
▁4-	-7782
ritz	-7783
▁120	-7784
▁2-0	-7785
▁Cay	-7786
▁Iow	-7787
▁Key	-7788
▁hal	-7789
▁mor	-7790
ensus	-7791
found	-7792
oting	-7793
venth	-7794
▁1999	-7795
▁Crit	-7796
▁Lear	-7797
▁Rand	-7798
▁Roll	-7799
▁vast	-7800
berger	-7801
▁Apple	-7802
▁Peace	-7803
▁links	-7804
▁rooms	-7805
▁stuck	-7806
▁vowed	-7807
▁Clevel	-7808
▁Harper	-7809
▁Others	-7810
▁archit	-7811
▁beauty	-7812
▁bureau	-7813
▁buying	-7814
▁gotten	-7815
▁gunman	-7816
▁listen	-7817
▁method	-7818
▁writes	-7819
▁Lincoln	-7820
▁arrival	-7821
▁chances	-7822
▁grounds	-7823
▁longtime	-7824
▁payments	-7825
▁Cleveland	-7826
▁discussed	-7827
▁dismissed	-7828
▁predicted	-7829
▁stability	-7830
▁nomination	-7831
EL	-7832
lan	-7833
oen	-7834
sec	-7835
▁7-	-7836
▁25,	-7837
▁Wolf	-7838
▁fier	-7839
▁lots	-7840
acters	-7841
incial	-7842
▁2003.	-7843
▁Diana	-7844
▁Lance	-7845
▁acted	-7846
▁goalk	-7847
▁quiet	-7848
▁truly	-7849
▁Square	-7850
▁anonym	-7851
▁brutal	-7852
▁flames	-7853
▁plenty	-7854
▁skills	-7855
▁strang	-7856
▁values	-7857
atically	-7858
▁Members	-7859
▁blocked	-7860
▁checked	-7861
▁coastal	-7862
▁erupted	-7863
▁feature	-7864
▁pledged	-7865
▁pointed	-7866
▁radical	-7867
▁Criminal	-7868
▁Egyptian	-7869
▁Hispanic	-7870
▁judgment	-7871
▁massacre	-7872
▁criminals	-7873
▁marriages	-7874
▁Venezuelan	-7875
▁atmosphere	-7876
▁collection	-7877
▁participate	-7878
▁understanding	-7879
LAN	-7880
▁5,	-7881
crif	-7882
iner	-7883
olar	-7884
rait	-7885
unal	-7886
▁25-	-7887
▁30,	-7888
▁Bor	-7889
▁NBC	-7890
▁Vat	-7891
▁bon	-7892
ician	-7893
uerto	-7894
▁Fund	-7895
▁Luis	-7896
▁Nich	-7897
▁bare	-7898
▁sett	-7899
owered	-7900
▁enemy	-7901
▁fewer	-7902
▁merch	-7903
▁rever	-7904
▁Bridge	-7905
▁Contin	-7906
▁Luther	-7907
▁Merkel	-7908
▁Puerto	-7909
▁desire	-7910
▁forget	-7911
▁reject	-7912
▁sacrif	-7913
ologists	-7914
▁Amnesty	-7915
▁Montana	-7916
▁Speaker	-7917
▁becomes	-7918
▁hitting	-7919
▁nominee	-7920
▁tsunami	-7921
asketball	-7922
▁Campbell	-7923
▁Cummings	-7924
▁commonly	-7925
▁networks	-7926
▁maintained	-7927
▁reputation	-7928
▁southeastern	-7929
▁entertainment	-7930
99	-7931
put	-7932
spe	-7933
▁Ib	-7934
▁iP	-7935
dney	-7936
free	-7937
inch	-7938
nold	-7939
urse	-7940
▁16,	-7941
▁600	-7942
▁Cou	-7943
▁Get	-7944
▁Why	-7945
▁Benn	-7946
▁Horn	-7947
▁Prop	-7948
▁asks	-7949
▁lies	-7950
▁lift	-7951
▁lock	-7952
▁puts	-7953
▁solo	-7954
apolis	-7955
uccess	-7956
▁Bangl	-7957
▁Moham	-7958
▁Storm	-7959
▁brown	-7960
▁tries	-7961
▁trigg	-7962
▁Cowell	-7963
▁Singer	-7964
▁easily	-7965
▁strict	-7966
▁Antonio	-7967
▁Bolivia	-7968
▁Station	-7969
▁carrier	-7970
▁chronic	-7971
▁clients	-7972
▁emerged	-7973
▁roughly	-7974
▁Thompson	-7975
▁existing	-7976
▁friendly	-7977
▁sponsors	-7978
▁complaints	-7979
▁presidents	-7980
▁comfortable	-7981
▁communication	-7982
▁demonstrators	-7983
▁extraordinary	-7984
One	-7985
ibr	-7986
och	-7987
oli	-7988
oni	-7989
▁51	-7990
▁je	-7991
case	-7992
ersk	-7993
▁$10	-7994
▁17-	-7995
▁22,	-7996
▁29,	-7997
▁Ast	-7998
▁Gun	-7999
▁Roh	-8000
▁Vis	-8001
▁suc	-8002
erted	-8003
▁Cand	-8004
▁Mull	-8005
▁Pitt	-8006
▁Shah	-8007
▁Sher	-8008
▁Sule	-8009
▁fees	-8010
▁obst	-8011
▁vent	-8012
▁zomb	-8013
artial	-8014
omayor	-8015
▁Grant	-8016
▁Nadal	-8017
▁Power	-8018
▁bears	-8019
▁birds	-8020
▁vital	-8021
▁Kansas	-8022
▁Maersk	-8023
▁Twenty	-8024
▁assets	-8025
▁delays	-8026
▁formal	-8027
▁master	-8028
▁plants	-8029
▁poison	-8030
▁satisf	-8031
▁symbol	-8032
▁Vatican	-8033
▁advance	-8034
▁crucial	-8035
▁posting	-8036
▁theater	-8037
▁festival	-8038
▁properly	-8039
▁Sotomayor	-8040
▁crackdown	-8041
▁discrimin	-8042
▁background	-8043
▁speculation	-8044
DAD	-8045
olk	-8046
▁TM	-8047
eren	-8048
half	-8049
ihad	-8050
ikes	-8051
itis	-8052
math	-8053
pour	-8054
uers	-8055
ugby	-8056
uous	-8057
writ	-8058
▁17,	-8059
▁19,	-8060
▁Alb	-8061
▁Our	-8062
▁TSA	-8063
class	-8064
erate	-8065
iable	-8066
inces	-8067
onent	-8068
▁Iowa	-8069
▁Jews	-8070
▁Mour	-8071
▁Roma	-8072
▁dies	-8073
▁dise	-8074
▁hung	-8075
▁wars	-8076
▁Bruce	-8077
▁Fritz	-8078
▁Jeffs	-8079
▁facts	-8080
▁likes	-8081
▁sorry	-8082
▁Dakota	-8083
▁Saddam	-8084
▁aggrav	-8085
▁honest	-8086
▁priest	-8087
▁soccer	-8088
▁string	-8089
▁visits	-8090
▁adviser	-8091
▁capable	-8092
▁episode	-8093
▁succeed	-8094
▁windows	-8095
▁Assembly	-8096
▁Homeland	-8097
▁opinions	-8098
▁purchase	-8099
▁aftermath	-8100
▁dedicated	-8101
▁encourage	-8102
▁triggered	-8103
▁Protection	-8104
▁characters	-8105
▁industrial	-8106
70	-8107
ek	-8108
Mal	-8109
acc	-8110
dro	-8111
key	-8112
iper	-8113
made	-8114
mont	-8115
moon	-8116
raid	-8117
▁Max	-8118
GHDAD	-8119
ource	-8120
volta	-8121
▁Cher	-8122
▁Tele	-8123
▁belt	-8124
▁empt	-8125
▁gren	-8126
ihanna	-8127
▁Andre	-8128
▁Award	-8129
▁Daily	-8130
▁ambul	-8131
▁bills	-8132
▁enorm	-8133
▁rehab	-8134
▁Felipe	-8135
▁Hawaii	-8136
▁Sweden	-8137
▁butter	-8138
▁floods	-8139
▁limits	-8140
▁stages	-8141
▁BAGHDAD	-8142
▁disturb	-8143
▁drought	-8144
▁extreme	-8145
▁purpose	-8146
elsewhere	-8147
▁Harrison	-8148
▁Honduras	-8149
▁Travolta	-8150
▁indicate	-8151
▁midnight	-8152
▁sleeping	-8153
▁demanding	-8154
▁emissions	-8155
▁temporary	-8156
▁Associated	-8157
▁Pittsburgh	-8158
▁goalkeeper	-8159
▁monitoring	-8160
▁destination	-8161
vo	-8162
uay	-8163
uri	-8164
▁53	-8165
▁Fi	-8166
airo	-8167
ells	-8168
odge	-8169
rank	-8170
real	-8171
rete	-8172
▁18,	-8173
▁26,	-8174
▁avo	-8175
▁odd	-8176
eding	-8177
iques	-8178
obile	-8179
regon	-8180
▁1991	-8181
▁Fris	-8182
▁Here	-8183
▁Road	-8184
▁epid	-8185
▁Trade	-8186
▁aired	-8187
▁explo	-8188
▁mouth	-8189
▁trash	-8190
▁units	-8191
duction	-8192
▁Econom	-8193
▁Guatem	-8194
▁Rwanda	-8195
▁Sydney	-8196
▁duties	-8197
▁locked	-8198
▁prefer	-8199
▁prince	-8200
▁pursue	-8201
▁solely	-8202
▁speaks	-8203
▁Coleman	-8204
▁Swedish	-8205
▁returns	-8206
▁seventh	-8207
▁baseball	-8208
▁shipping	-8209
▁teachers	-8210
▁Katherine	-8211
▁elsewhere	-8212
▁containing	-8213
VI	-8214
jo	-8215
ais	-8216
roe	-8217
▁8.	-8218
jean	-8219
oval	-8220
pret	-8221
weet	-8222
▁14-	-8223
▁250	-8224
▁Fal	-8225
▁III	-8226
▁MDC	-8227
▁Rah	-8228
▁Ret	-8229
▁Ted	-8230
angel	-8231
cript	-8232
erves	-8233
inhua	-8234
ollar	-8235
onies	-8236
storm	-8237
▁Expl	-8238
▁Gary	-8239
▁Hold	-8240
▁cous	-8241
▁exit	-8242
▁fame	-8243
ocaust	-8244
orough	-8245
▁Local	-8246
▁Myers	-8247
▁Roger	-8248
▁Where	-8249
▁anger	-8250
▁arson	-8251
▁chest	-8252
▁forms	-8253
▁keeps	-8254
▁types	-8255
▁weren	-8256
▁bright	-8257
▁clinic	-8258
▁dubbed	-8259
▁elabor	-8260
▁excess	-8261
▁starts	-8262
▁voting	-8263
munition	-8264
stitutes	-8265
▁Bernard	-8266
▁Disease	-8267
▁Haleigh	-8268
▁Katrina	-8269
▁Rihanna	-8270
▁carries	-8271
▁comprom	-8272
▁fleeing	-8273
▁pushing	-8274
▁resolve	-8275
▁sailors	-8276
▁Frontier	-8277
▁airplane	-8278
▁dialogue	-8279
▁dramatic	-8280
▁painting	-8281
▁Alexander	-8282
▁detonated	-8283
▁performing	-8284
▁violations	-8285
▁celebration	-8286
▁increasingly	-8287
▁unemployment	-8288
25	-8289
8-	-8290
rd	-8291
Gen	-8292
ece	-8293
gar	-8294
▁Rh	-8295
▁VA	-8296
▁du	-8297
phic	-8298
with	-8299
▁$1.	-8300
▁15,	-8301
▁191	-8302
▁Any	-8303
▁Jar	-8304
▁Lah	-8305
▁sav	-8306
ourne	-8307
▁outs	-8308
ective	-8309
olence	-8310
▁Young	-8311
▁grown	-8312
▁hired	-8313
▁theft	-8314
▁unity	-8315
▁walls	-8316
▁20,000	-8317
▁admits	-8318
▁export	-8319
▁height	-8320
▁lasted	-8321
▁parole	-8322
▁sector	-8323
▁Brother	-8324
▁airstri	-8325
▁joining	-8326
▁militia	-8327
▁noticed	-8328
▁stretch	-8329
▁Kentucky	-8330
▁designer	-8331
▁occasion	-8332
▁departure	-8333
▁opponents	-8334
▁Scientists	-8335
▁protecting	-8336
▁accusations	-8337
▁Championship	-8338
des	-8339
esc	-8340
▁41	-8341
▁Ap	-8342
▁Ki	-8343
inct	-8344
odel	-8345
uese	-8346
▁31,	-8347
▁Esp	-8348
▁NFL	-8349
▁Oak	-8350
▁Rem	-8351
▁hur	-8352
▁rid	-8353
lease	-8354
vious	-8355
▁1960	-8356
▁Call	-8357
▁Kate	-8358
▁aims	-8359
▁bull	-8360
▁eval	-8361
▁moon	-8362
▁owns	-8363
▁ramp	-8364
rapped	-8365
▁Elect	-8366
▁Moroc	-8367
▁Perry	-8368
▁Rosen	-8369
▁Tracy	-8370
▁habit	-8371
▁horse	-8372
▁optim	-8373
▁ranch	-8374
▁shops	-8375
▁sweet	-8376
▁Orange	-8377
▁Spring	-8378
▁hiding	-8379
agnitude	-8380
▁Reports	-8381
▁digital	-8382
▁excited	-8383
▁islands	-8384
▁pattern	-8385
▁sailing	-8386
▁separat	-8387
▁Aviation	-8388
▁collabor	-8389
▁combined	-8390
▁troubled	-8391
▁Represent	-8392
▁appointed	-8393
▁astronaut	-8394
▁attacking	-8395
▁Enforcement	-8396
▁temperature	-8397
PD	-8398
PS	-8399
bal	-8400
▁73	-8401
▁Cy	-8402
agen	-8403
anne	-8404
imid	-8405
stan	-8406
wing	-8407
▁CBS	-8408
▁Kam	-8409
▁aer	-8410
▁mir	-8411
▁mun	-8412
andan	-8413
berto	-8414
encia	-8415
ierno	-8416
riers	-8417
▁Anna	-8418
▁Fair	-8419
▁Pers	-8420
▁Prof	-8421
▁sket	-8422
▁stro	-8423
arrass	-8424
ulture	-8425
▁Analy	-8426
▁Death	-8427
▁Messi	-8428
▁legit	-8429
▁shirt	-8430
▁steal	-8431
▁tears	-8432
▁weigh	-8433
▁Dugard	-8434
▁afraid	-8435
▁iconic	-8436
▁losses	-8437
▁rounds	-8438
iliation	-8439
▁Beatles	-8440
▁Liberty	-8441
▁Odierno	-8442
▁Prejean	-8443
▁Witness	-8444
▁advised	-8445
▁dealers	-8446
▁highway	-8447
▁totally	-8448
▁underst	-8449
▁customer	-8450
▁memories	-8451
▁rescuers	-8452
▁villages	-8453
▁Portuguese	-8454
▁ammunition	-8455
▁authorized	-8456
▁relatively	-8457
▁sentencing	-8458
▁investigator	-8459
CA	-8460
jud	-8461
yer	-8462
▁6,	-8463
eded	-8464
imed	-8465
loid	-8466
riot	-8467
vant	-8468
▁10,	-8469
▁Faw	-8470
▁Leg	-8471
▁Pen	-8472
▁Row	-8473
▁Sab	-8474
▁Whe	-8475
▁kit	-8476
▁pig	-8477
▁tun	-8478
aware	-8479
mails	-8480
ropol	-8481
▁1998	-8482
▁Cook	-8483
▁Lisa	-8484
▁Shan	-8485
▁embr	-8486
▁mail	-8487
ousand	-8488
▁2009,	-8489
▁Abbas	-8490
▁Labor	-8491
▁Mosul	-8492
▁Music	-8493
▁Wayne	-8494
▁cells	-8495
▁flown	-8496
▁fract	-8497
▁globe	-8498
▁pages	-8499
▁postp	-8500
attered	-8501
certain	-8502
▁Arctic	-8503
▁Fritzl	-8504
▁advent	-8505
▁albums	-8506
▁crowds	-8507
▁feared	-8508
▁fields	-8509
▁forest	-8510
▁kicked	-8511
▁motion	-8512
▁openly	-8513
▁prayer	-8514
▁safely	-8515
▁tracks	-8516
▁unrest	-8517
▁Develop	-8518
▁Jenkins	-8519
▁Suleman	-8520
▁accuses	-8521
▁applied	-8522
▁borders	-8523
▁tabloid	-8524
▁defeated	-8525
▁diseases	-8526
▁operated	-8527
▁platform	-8528
▁schedule	-8529
▁slightly	-8530
▁warrants	-8531
▁nonprofit	-8532
▁Richardson	-8533
▁indication	-8534
▁interviews	-8535
▁percentage	-8536
▁investigations	-8537
100	-8538
iti	-8539
utt	-8540
▁UA	-8541
▁ec	-8542
aste	-8543
▁23,	-8544
▁Kaz	-8545
▁Nov	-8546
▁Ren	-8547
▁les	-8548
aired	-8549
apped	-8550
grade	-8551
third	-8552
▁Down	-8553
▁Gupt	-8554
▁Mush	-8555
▁Palm	-8556
▁burg	-8557
▁diet	-8558
▁fake	-8559
▁loud	-8560
▁quit	-8561
bourne	-8562
itical	-8563
ruptcy	-8564
▁Wales	-8565
▁erupt	-8566
▁escal	-8567
▁lobby	-8568
▁novel	-8569
▁wrest	-8570
unction	-8571
▁30,000	-8572
▁Oregon	-8573
▁enthus	-8574
▁orphan	-8575
▁palace	-8576
▁switch	-8577
▁Formula	-8578
▁knowing	-8579
▁reading	-8580
▁Movement	-8581
▁anywhere	-8582
▁militias	-8583
▁survival	-8584
▁Communist	-8585
▁Holocaust	-8586
▁Residents	-8587
▁Rodriguez	-8588
▁exclusive	-8589
▁iReporter	-8590
▁indicates	-8591
▁purchased	-8592
▁resulting	-8593
▁endangered	-8594
▁consequences	-8595
▁prescription	-8596
▁assassination	-8597
▁correspondent	-8598
OL	-8599
RC	-8600
dy	-8601
iy	-8602
has	-8603
iot	-8604
kar	-8605
ori	-8606
anes	-8607
feld	-8608
▁cha	-8609
▁pit	-8610
While	-8611
etown	-8612
iants	-8613
▁1994	-8614
▁Hind	-8615
▁Salv	-8616
▁Vill	-8617
▁busy	-8618
▁dign	-8619
▁hide	-8620
▁kiss	-8621
▁knee	-8622
▁pros	-8623
▁sits	-8624
▁tent	-8625
ateful	-8626
cation	-8627
rating	-8628
▁Broad	-8629
▁Putin	-8630
▁Treas	-8631
▁apply	-8632
▁decre	-8633
▁guest	-8634
▁veget	-8635
aration	-8636
▁dollar	-8637
▁vision	-8638
▁Bennett	-8639
▁Morales	-8640
▁Nicolas	-8641
▁Tibetan	-8642
▁amounts	-8643
▁answers	-8644
▁knocked	-8645
▁speaker	-8646
▁warming	-8647
rehensive	-8648
▁Fernando	-8649
▁disorder	-8650
▁engineer	-8651
▁shoulder	-8652
▁courtroom	-8653
▁defendant	-8654
▁fundament	-8655
▁motivated	-8656
▁incredible	-8657
▁networking	-8658
▁popularity	-8659
.)	-8660
FP	-8661
po	-8662
akh	-8663
aso	-8664
auc	-8665
dam	-8666
▁9.	-8667
▁ru	-8668
etic	-8669
▁50-	-8670
▁BBC	-8671
▁Say	-8672
▁cow	-8673
▁cra	-8674
▁cul	-8675
▁dre	-8676
▁ing	-8677
▁yes	-8678
▁$100	-8679
▁Send	-8680
▁Stev	-8681
▁foss	-8682
▁plus	-8683
called	-8684
ridges	-8685
▁Camer	-8686
▁Later	-8687
▁cabin	-8688
▁empty	-8689
▁knife	-8690
▁march	-8691
▁marry	-8692
▁memor	-8693
▁Munich	-8694
▁Rafael	-8695
▁Uganda	-8696
▁abused	-8697
▁actors	-8698
▁fisher	-8699
▁hidden	-8700
▁reconc	-8701
▁serves	-8702
▁shares	-8703
▁trauma	-8704
▁Suspect	-8705
▁battery	-8706
▁matters	-8707
▁univers	-8708
magnitude	-8709
▁Cambodia	-8710
▁Division	-8711
▁Veterans	-8712
▁homeland	-8713
▁informed	-8714
▁architect	-8715
▁contracts	-8716
▁screening	-8717
▁selection	-8718
▁televised	-8719
▁unsuccess	-8720
▁classified	-8721
▁commentary	-8722
▁encouraged	-8723
▁medication	-8724
▁personally	-8725
▁association	-8726
▁businessman	-8727
▁participating	-8728
ES	-8729
cr	-8730
xi	-8731
ohn	-8732
▁$9	-8733
▁46	-8734
▁Ky	-8735
asha	-8736
awar	-8737
greg	-8738
held	-8739
ivan	-8740
ovie	-8741
vere	-8742
▁193	-8743
▁6-2	-8744
▁Hat	-8745
▁Moz	-8746
▁Pil	-8747
▁Str	-8748
arden	-8749
rahim	-8750
slist	-8751
umber	-8752
▁Ferr	-8753
▁Kand	-8754
▁fisc	-8755
▁toug	-8756
ainted	-8757
essing	-8758
onnell	-8759
rystal	-8760
▁Dream	-8761
▁Mouss	-8762
▁agric	-8763
▁bases	-8764
▁dying	-8765
▁paint	-8766
▁risks	-8767
rolling	-8768
▁Harris	-8769
▁Panama	-8770
▁Parker	-8771
▁Polish	-8772
▁checks	-8773
▁compar	-8774
▁hunger	-8775
▁ousted	-8776
▁stated	-8777
▁Colbert	-8778
▁Command	-8779
▁Critics	-8780
▁Highway	-8781
▁Madonna	-8782
▁approve	-8783
▁outrage	-8784
▁persons	-8785
▁Business	-8786
▁Jonathan	-8787
▁Official	-8788
▁defended	-8789
▁distance	-8790
▁entering	-8791
▁notified	-8792
▁stranded	-8793
▁warnings	-8794
▁entertain	-8795
▁followers	-8796
▁practices	-8797
▁provinces	-8798
▁sensitive	-8799
▁aggravated	-8800
▁overturned	-8801
▁provincial	-8802
▁withdrawal	-8803
▁Corporation	-8804
▁combination	-8805
▁competitive	-8806
▁devastating	-8807
▁distributed	-8808
▁temporarily	-8809
▁disappointed	-8810
800	-8811
ati	-8812
aux	-8813
def	-8814
ubb	-8815
▁(3	-8816
▁54	-8817
▁9,	-8818
▁AP	-8819
isan	-8820
ohan	-8821
▁Ran	-8822
▁fro	-8823
▁rig	-8824
▁sch	-8825
agged	-8826
antic	-8827
arraf	-8828
olera	-8829
osite	-8830
▁1997	-8831
▁Cond	-8832
▁Hist	-8833
▁Idol	-8834
▁Josh	-8835
▁Nico	-8836
▁furn	-8837
▁ours	-8838
▁pump	-8839
isting	-8840
placed	-8841
▁2002,	-8842
▁Billy	-8843
▁Gupta	-8844
▁Sport	-8845
▁accur	-8846
▁dates	-8847
▁eleph	-8848
▁fever	-8849
▁innov	-8850
▁phase	-8851
▁seeks	-8852
▁threw	-8853
endment	-8854
ocratic	-8855
pective	-8856
▁Edward	-8857
▁Letter	-8858
▁Search	-8859
▁Wright	-8860
▁conven	-8861
▁infant	-8862
▁noting	-8863
▁absence	-8864
▁courage	-8865
▁expects	-8866
▁gunfire	-8867
▁intimid	-8868
▁payment	-8869
▁sharing	-8870
▁wheelch	-8871
▁Franklin	-8872
▁Mohammad	-8873
▁advanced	-8874
▁analysis	-8875
▁athletes	-8876
▁downturn	-8877
▁operates	-8878
▁Musharraf	-8879
▁childhood	-8880
▁embarrass	-8881
▁governing	-8882
▁nominated	-8883
▁prompting	-8884
▁Federation	-8885
▁Management	-8886
▁basketball	-8887
▁regulations	-8888
▁represented	-8889
▁demonstration	-8890
adh	-8891
lus	-8892
mes	-8893
pit	-8894
zen	-8895
▁WW	-8896
bury	-8897
door	-8898
edom	-8899
elli	-8900
holm	-8901
iece	-8902
inth	-8903
rate	-8904
rets	-8905
tega	-8906
▁10.	-8907
▁13-	-8908
▁Dog	-8909
▁Han	-8910
▁Ron	-8911
▁Who	-8912
▁bat	-8913
▁vit	-8914
LANTA	-8915
owing	-8916
venue	-8917
▁Dick	-8918
▁Play	-8919
▁Prix	-8920
▁Raul	-8921
▁Supp	-8922
▁pose	-8923
accept	-8924
artney	-8925
▁Irish	-8926
▁Krist	-8927
▁chair	-8928
▁lunch	-8929
▁raped	-8930
▁corpor	-8931
▁dealer	-8932
▁driven	-8933
▁nobody	-8934
▁ATLANTA	-8935
▁Barkley	-8936
▁Indiana	-8937
▁Mohamed	-8938
▁classes	-8939
▁impress	-8940
▁murders	-8941
▁transit	-8942
▁Chairman	-8943
▁Iranians	-8944
▁awaiting	-8945
▁enormous	-8946
▁computers	-8947
▁donations	-8948
▁Bangladesh	-8949
▁Christians	-8950
▁allegation	-8951
▁frequently	-8952
▁revolution	-8953
▁experiences	-8954
▁interesting	-8955
▁specifically	-8956
CO	-8957
ato	-8958
awa	-8959
lad	-8960
▁Ep	-8961
▁Ku	-8962
aron	-8963
elle	-8964
elry	-8965
mans	-8966
▁24,	-8967
▁6-3	-8968
▁Amy	-8969
▁Led	-8970
▁Ric	-8971
▁Roy	-8972
▁UAE	-8973
▁joy	-8974
acted	-8975
arged	-8976
armed	-8977
bound	-8978
ields	-8979
isons	-8980
named	-8981
paren	-8982
quiao	-8983
style	-8984
▁Alan	-8985
▁Anti	-8986
▁Nash	-8987
▁Pesh	-8988
▁Phot	-8989
▁wire	-8990
Maliki	-8991
▁Greek	-8992
▁Joint	-8993
▁Miche	-8994
▁Tyler	-8995
▁loyal	-8996
▁scale	-8997
▁spots	-8998
▁Austin	-8999
▁Cruise	-9000
▁Follow	-9001
▁Frisky	-9002
▁Leader	-9003
▁Powell	-9004
▁explan	-9005
▁extend	-9006
▁intens	-9007
▁runoff	-9008
▁unions	-9009
▁welcom	-9010
▁Ibrahim	-9011
▁Janeiro	-9012
▁Without	-9013
▁minimum	-9014
▁monthly	-9015
Americans	-9016
▁Mourinho	-9017
▁Pacquiao	-9018
▁covering	-9019
▁elements	-9020
▁exciting	-9021
▁interior	-9022
▁promises	-9023
▁strongly	-9024
▁youngest	-9025
▁Dominican	-9026
▁mountains	-9027
▁probation	-9028
▁technical	-9029
▁Prevention	-9030
▁counseling	-9031
▁responding	-9032
▁Representatives	-9033
BU	-9034
Be	-9035
GO	-9036
HC	-9037
700	-9038
SAF	-9039
▁57	-9040
▁AI	-9041
▁Ho	-9042
uent	-9043
umer	-9044
umes	-9045
▁23-	-9046
▁Tri	-9047
▁emp	-9048
▁lit	-9049
▁nav	-9050
rings	-9051
▁$500	-9052
▁Book	-9053
▁Bran	-9054
▁Dave	-9055
▁cave	-9056
▁ease	-9057
ayings	-9058
inding	-9059
inking	-9060
itable	-9061
ranged	-9062
▁4,000	-9063
▁Gibbs	-9064
▁Trump	-9065
▁knock	-9066
▁print	-9067
▁queen	-9068
▁strip	-9069
▁theme	-9070
Shabaab	-9071
monella	-9072
▁Change	-9073
▁Energy	-9074
▁Kenyan	-9075
▁Survey	-9076
▁motive	-9077
▁peanut	-9078
▁Eastern	-9079
▁restore	-9080
▁Peshawar	-9081
▁Robinson	-9082
▁Speaking	-9083
▁Treasury	-9084
▁concrete	-9085
▁crossing	-9086
▁wildlife	-9087
▁Executive	-9088
▁McCartney	-9089
▁Operation	-9090
▁dominated	-9091
▁essential	-9092
▁gathering	-9093
▁producing	-9094
▁biological	-9095
▁discussion	-9096
▁Researchers	-9097
▁compensation	-9098
▁confirmation	-9099
EC	-9100
GA	-9101
EFA	-9102
asy	-9103
aus	-9104
cho	-9105
dis	-9106
eds	-9107
iac	-9108
vez	-9109
vin	-9110
cett	-9111
ribe	-9112
▁Bos	-9113
▁Box	-9114
▁Env	-9115
▁Had	-9116
▁Kay	-9117
▁Mut	-9118
▁cup	-9119
▁gri	-9120
Today	-9121
achel	-9122
cover	-9123
eling	-9124
eller	-9125
oenix	-9126
▁Dean	-9127
▁Hood	-9128
▁Mill	-9129
▁Plan	-9130
▁Roth	-9131
▁Sold	-9132
▁Tuts	-9133
▁dust	-9134
▁rose	-9135
▁semi	-9136
heimer	-9137
iciary	-9138
▁Costa	-9139
▁Hasan	-9140
▁Media	-9141
▁aside	-9142
▁climb	-9143
▁disch	-9144
▁flash	-9145
▁relie	-9146
▁shift	-9147
▁solve	-9148
tenance	-9149
▁50,000	-9150
▁Editor	-9151
▁Ortega	-9152
▁actual	-9153
▁extent	-9154
▁impose	-9155
▁manner	-9156
▁regret	-9157
▁volunt	-9158
▁Fawcett	-9159
▁caution	-9160
▁donated	-9161
▁gallery	-9162
▁nightcl	-9163
▁sustain	-9164
▁teenage	-9165
▁trading	-9166
▁volcano	-9167
▁hometown	-9168
▁melamine	-9169
▁operator	-9170
▁petition	-9171
▁pilgrims	-9172
▁suddenly	-9173
▁thousand	-9174
▁converted	-9175
▁elaborate	-9176
▁extensive	-9177
▁headlines	-9178
▁spotlight	-9179
▁statistics	-9180
▁structures	-9181
▁challenging	-9182
▁politically	-9183
▁questioning	-9184
▁commissioner	-9185
▁spokesperson	-9186
▁recommendations	-9187
▁8-	-9188
▁Ba	-9189
▁LA	-9190
▁Ur	-9191
▁ho	-9192
atra	-9193
enda	-9194
ilit	-9195
ipal	-9196
opez	-9197
tery	-9198
uran	-9199
▁800	-9200
▁Ele	-9201
▁Opp	-9202
▁gro	-9203
▁sup	-9204
▁tur	-9205
phoon	-9206
▁Brun	-9207
▁Celt	-9208
▁Huck	-9209
▁Reza	-9210
▁lesb	-9211
▁meat	-9212
▁mour	-9213
▁phen	-9214
istant	-9215
pector	-9216
▁Jacob	-9217
▁Stand	-9218
▁badly	-9219
▁draft	-9220
▁harsh	-9221
▁riots	-9222
▁smart	-9223
▁sweep	-9224
achment	-9225
profile	-9226
written	-9227
▁Gibson	-9228
▁Greece	-9229
▁arrang	-9230
▁bacter	-9231
▁barrel	-9232
▁bloody	-9233
▁breaks	-9234
▁convoy	-9235
▁hosted	-9236
▁narcot	-9237
▁ransom	-9238
▁rushed	-9239
▁slowly	-9240
▁sounds	-9241
▁temple	-9242
▁thrown	-9243
▁viewed	-9244
▁Alberto	-9245
▁Customs	-9246
▁Phoenix	-9247
▁hanging	-9248
▁hopeful	-9249
▁motorcy	-9250
▁predict	-9251
▁Scottish	-9252
▁accompan	-9253
▁currency	-9254
▁entrance	-9255
▁involves	-9256
▁severely	-9257
▁software	-9258
▁substance	-9259
▁uncertain	-9260
▁inspection	-9261
▁organizers	-9262
▁Continental	-9263
▁grandmother	-9264
▁outstanding	-9265
▁proceedings	-9266
HS	-9267
hy	-9268
kh	-9269
zb	-9270
REE	-9271
die	-9272
eri	-9273
mig	-9274
oac	-9275
aret	-9276
frey	-9277
olph	-9278
udad	-9279
▁16-	-9280
▁Did	-9281
▁Lau	-9282
▁Mes	-9283
▁Ped	-9284
▁Seb	-9285
agasc	-9286
leton	-9287
orses	-9288
unior	-9289
▁Beth	-9290
▁Bron	-9291
▁Cant	-9292
▁Coll	-9293
▁Crow	-9294
▁FREE	-9295
▁Lang	-9296
▁Pink	-9297
▁Rose	-9298
▁epic	-9299
▁sued	-9300
▁taxp	-9301
ancell	-9302
icides	-9303
lights	-9304
rupted	-9305
▁Movie	-9306
▁Paren	-9307
▁Trust	-9308
▁fault	-9309
▁fined	-9310
▁ranks	-9311
▁stake	-9312
agascar	-9313
▁Celtic	-9314
▁Hunter	-9315
▁belief	-9316
▁donate	-9317
▁guitar	-9318
▁harder	-9319
▁pastor	-9320
▁yellow	-9321
▁Barrett	-9322
▁elderly	-9323
▁exchang	-9324
▁Stanford	-9325
▁bathroom	-9326
▁concerts	-9327
▁epidemic	-9328
▁grateful	-9329
▁homicide	-9330
▁slayings	-9331
▁swimming	-9332
▁thorough	-9333
▁generally	-9334
▁household	-9335
▁peninsula	-9336
▁releasing	-9337
▁bankruptcy	-9338
▁deployment	-9339
▁declaration	-9340
▁partnership	-9341
▁underground	-9342
▁Revolutionary	-9343
▁comprehensive	-9344
-4	-9345
His	-9346
bul	-9347
tic	-9348
▁Ra	-9349
abil	-9350
ench	-9351
icro	-9352
uros	-9353
vard	-9354
▁Cat	-9355
▁Cob	-9356
▁DEL	-9357
▁Fer	-9358
▁Fur	-9359
▁Hit	-9360
▁Kum	-9361
▁alt	-9362
▁vig	-9363
ables	-9364
ashir	-9365
inter	-9366
orage	-9367
rific	-9368
▁1989	-9369
▁1996	-9370
▁Balt	-9371
▁Care	-9372
▁Free	-9373
▁Khal	-9374
▁Pear	-9375
▁Walk	-9376
▁pron	-9377
▁seas	-9378
▁soil	-9379
▁toil	-9380
incess	-9381
member	-9382
▁Armed	-9383
▁Fried	-9384
▁Lopez	-9385
▁burns	-9386
▁burst	-9387
▁drama	-9388
▁guide	-9389
▁parks	-9390
▁Disney	-9391
▁Indust	-9392
▁adjust	-9393
▁dumped	-9394
▁fiscal	-9395
▁silver	-9396
▁Freedom	-9397
▁Morning	-9398
▁Project	-9399
▁anybody	-9400
▁fatally	-9401
▁imagine	-9402
▁stabbed	-9403
▁Maritime	-9404
▁Valencia	-9405
▁Wildlife	-9406
▁contains	-9407
▁formally	-9408
▁substant	-9409
▁supports	-9410
▁accidents	-9411
▁encounter	-9412
▁smuggling	-9413
▁witnessed	-9414
▁Liberation	-9415
▁Madagascar	-9416
▁checkpoint	-9417
▁remembered	-9418
▁suspicious	-9419
▁Environment	-9420
▁grandfather	-9421
▁conservation	-9422
▁parliamentary	-9423
DR	-9424
KK	-9425
bie	-9426
oub	-9427
uzz	-9428
atti	-9429
cell	-9430
quez	-9431
uest	-9432
▁12,	-9433
▁Hon	-9434
▁Hos	-9435
▁Jak	-9436
▁Sat	-9437
▁fer	-9438
▁hip	-9439
▁mad	-9440
andom	-9441
ghold	-9442
icken	-9443
rical	-9444
shirt	-9445
▁Aren	-9446
▁Ball	-9447
▁Duke	-9448
▁Fall	-9449
▁Phel	-9450
▁Sony	-9451
▁UEFA	-9452
▁Yang	-9453
▁nerv	-9454
▁nick	-9455
▁DELHI	-9456
▁Wazir	-9457
▁coinc	-9458
▁craft	-9459
▁grant	-9460
▁notor	-9461
▁opium	-9462
▁persu	-9463
▁stron	-9464
▁urges	-9465
ignment	-9466
▁heroin	-9467
▁racing	-9468
ographic	-9469
▁Belgian	-9470
▁Mission	-9471
▁Sanford	-9472
▁Stevens	-9473
▁neither	-9474
▁passage	-9475
▁tourism	-9476
▁Portugal	-9477
▁cemetery	-9478
▁frequent	-9479
▁mortgage	-9480
▁relative	-9481
▁restored	-9482
▁stronger	-9483
▁terminal	-9484
illionaire	-9485
▁Cristiano	-9486
▁marketing	-9487
▁separated	-9488
▁villagers	-9489
▁initiative	-9490
▁newspapers	-9491
▁qualifying	-9492
▁stronghold	-9493
▁replacement	-9494
▁overwhelming	-9495
▁neighborhoods	-9496
?'	-9497
MI	-9498
hr	-9499
BAD	-9500
ima	-9501
▁ID	-9502
▁Na	-9503
▁ge	-9504
acon	-9505
aran	-9506
awal	-9507
cott	-9508
emor	-9509
enza	-9510
host	-9511
leum	-9512
load	-9513
warz	-9514
▁Bal	-9515
▁Liz	-9516
▁Sub	-9517
▁WHO	-9518
▁gap	-9519
▁spr	-9520
aksin	-9521
▁Benj	-9522
▁Berg	-9523
▁Hezb	-9524
▁Kirk	-9525
▁Made	-9526
▁Pict	-9527
▁Pier	-9528
▁Team	-9529
▁beer	-9530
▁blew	-9531
▁cert	-9532
▁loot	-9533
▁pard	-9534
▁sadd	-9535
▁soph	-9536
abouts	-9537
aching	-9538
amburg	-9539
estyle	-9540
unting	-9541
▁Actor	-9542
▁Heene	-9543
▁Miley	-9544
▁guerr	-9545
▁hosts	-9546
▁humor	-9547
▁nurse	-9548
▁toler	-9549
General	-9550
earcher	-9551
olences	-9552
uations	-9553
▁Albert	-9554
▁Perino	-9555
▁Peters	-9556
▁Refuge	-9557
▁Sullen	-9558
▁statue	-9559
▁Channel	-9560
▁Experts	-9561
▁Express	-9562
▁Goldman	-9563
▁Russell	-9564
▁Schwarz	-9565
▁backing	-9566
▁channel	-9567
▁lessons	-9568
▁outcome	-9569
▁profile	-9570
▁rockets	-9571
▁accusing	-9572
▁consumer	-9573
▁creative	-9574
▁insisted	-9575
▁tribunal	-9576
acceptable	-9577
▁fireworks	-9578
▁electronic	-9579
▁scientific	-9580
▁techniques	-9581
▁condolences	-9582
▁traffickers	-9583
▁Sullenberger	-9584
BO	-9585
Ob	-9586
Oh	-9587
py	-9588
600	-9589
aga	-9590
ban	-9591
org	-9592
uba	-9593
▁Ci	-9594
aved	-9595
eneg	-9596
heme	-9597
iffs	-9598
ione	-9599
osex	-9600
rard	-9601
▁700	-9602
▁Bry	-9603
▁Der	-9604
▁Fle	-9605
▁Inn	-9606
▁Muk	-9607
▁NBA	-9608
▁Rol	-9609
▁Tam	-9610
▁fab	-9611
▁hug	-9612
erald	-9613
olved	-9614
reced	-9615
▁Chap	-9616
▁ISAF	-9617
▁Line	-9618
▁Mall	-9619
▁Rico	-9620
▁Tens	-9621
▁elig	-9622
▁fate	-9623
▁jack	-9624
▁navy	-9625
▁pace	-9626
▁phil	-9627
▁tail	-9628
▁unex	-9629
▁veto	-9630
thouse	-9631
▁5,000	-9632
▁balls	-9633
▁cheap	-9634
▁donor	-9635
▁lucky	-9636
▁multi	-9637
▁relax	-9638
▁rugby	-9639
▁sharp	-9640
▁shore	-9641
▁shout	-9642
▁trips	-9643
Because	-9644
lington	-9645
vereign	-9646
▁Graham	-9647
▁agenda	-9648
▁contem	-9649
▁cousin	-9650
▁finals	-9651
▁Country	-9652
▁Masters	-9653
▁Michoac	-9654
▁Thaksin	-9655
▁Winfrey	-9656
▁alleges	-9657
▁cartoon	-9658
▁crowded	-9659
▁revenue	-9660
▁tonight	-9661
▁winners	-9662
▁Alliance	-9663
▁Austrian	-9664
▁Malaysia	-9665
▁commemor	-9666
▁diplomat	-9667
▁feelings	-9668
▁machines	-9669
▁mistakes	-9670
▁quarterf	-9671
▁searches	-9672
identified	-9673
recedented	-9674
▁therefore	-9675
▁Protesters	-9676
▁semifinals	-9677
▁effectively	-9678
▁forecasters	-9679
▁maintenance	-9680
▁recommended	-9681
▁whereabouts	-9682
ICE	-9683
ITY	-9684
adr	-9685
afe	-9686
ski	-9687
▁49	-9688
▁58	-9689
▁Sk	-9690
▁Sr	-9691
LAMA	-9692
Neal	-9693
ashi	-9694
iege	-9695
ocol	-9696
oros	-9697
othe	-9698
▁13,	-9699
▁3-0	-9700
▁40-	-9701
▁Ath	-9702
▁Bir	-9703
▁Mig	-9704
arity	-9705
letti	-9706
onsin	-9707
story	-9708
▁Whit	-9709
▁Your	-9710
▁liqu	-9711
▁marg	-9712
▁twin	-9713
rowing	-9714
usalem	-9715
▁Marri	-9716
▁Night	-9717
▁Nixon	-9718
▁Robin	-9719
▁comic	-9720
▁crops	-9721
▁fleet	-9722
▁grass	-9723
▁kinds	-9724
▁mourn	-9725
▁spill	-9726
▁swept	-9727
▁sworn	-9728
LAMABAD	-9729
weather	-9730
▁Hubble	-9731
▁Lahore	-9732
▁Phelps	-9733
▁Rescue	-9734
▁cruise	-9735
▁harass	-9736
▁nurses	-9737
▁perpet	-9738
▁refund	-9739
▁signal	-9740
etroleum	-9741
isconsin	-9742
▁Kercher	-9743
▁Raymond	-9744
▁closure	-9745
▁handled	-9746
▁orchest	-9747
▁Benjamin	-9748
▁Christie	-9749
▁briefing	-9750
▁creation	-9751
▁offender	-9752
▁stressed	-9753
▁suburban	-9754
▁surfaced	-9755
▁ISLAMABAD	-9756
▁Jerusalem	-9757
▁apologize	-9758
▁expecting	-9759
▁interpret	-9760
▁Convention	-9761
▁Philippine	-9762
▁celebrates	-9763
▁designated	-9764
▁everywhere	-9765
▁exhibition	-9766
▁pronounced	-9767
▁accompanied	-9768
▁manufacturer	-9769
▁performances	-9770
Mar	-9771
New	-9772
cal	-9773
uda	-9774
▁AM	-9775
▁BE	-9776
ista	-9777
oker	-9778
oric	-9779
▁12.	-9780
▁180	-9781
▁Bul	-9782
▁Cho	-9783
▁Mas	-9784
▁Reb	-9785
▁Yet	-9786
▁Zoo	-9787
▁egg	-9788
▁zoo	-9789
After	-9790
anson	-9791
arted	-9792
doing	-9793
eanor	-9794
icked	-9795
ueens	-9796
▁Bail	-9797
▁Bris	-9798
▁Djok	-9799
▁Head	-9800
▁Karl	-9801
▁Room	-9802
▁peak	-9803
▁pock	-9804
▁visa	-9805
▁Bloom	-9806
▁admin	-9807
▁kills	-9808
▁mixed	-9809
▁overd	-9810
▁pound	-9811
▁recip	-9812
▁smile	-9813
▁Cheney	-9814
▁Summer	-9815
▁anchor	-9816
▁meteor	-9817
▁raises	-9818
▁scream	-9819
▁transl	-9820
▁waited	-9821
▁Gerrard	-9822
▁briefly	-9823
▁exposed	-9824
▁gunshot	-9825
▁seasons	-9826
▁touched	-9827
▁typical	-9828
▁Brooklyn	-9829
▁Category	-9830
▁Haitians	-9831
▁attached	-9832
▁evacuate	-9833
▁examiner	-9834
▁lifetime	-9835
▁moderate	-9836
▁overcome	-9837
▁pictured	-9838
▁republic	-9839
▁Hezbollah	-9840
▁ambulance	-9841
▁assaulted	-9842
▁associate	-9843
▁attracted	-9844
▁continent	-9845
▁exception	-9846
▁nightclub	-9847
▁otherwise	-9848
▁producers	-9849
▁surviving	-9850
▁Waziristan	-9851
▁politician	-9852
▁retirement	-9853
▁Development	-9854
▁Constitution	-9855
▁applications	-9856
▁professionals	-9857
",	-9858
35	-9859
EG	-9860
afi	-9861
jev	-9862
vic	-9863
▁52	-9864
▁CL	-9865
▁Hu	-9866
-200	-9867
dale	-9868
inez	-9869
phis	-9870
soft	-9871
wife	-9872
zard	-9873
▁160	-9874
▁Agr	-9875
▁Alz	-9876
▁Bon	-9877
▁Got	-9878
▁Kil	-9879
▁fru	-9880
hetic	-9881
opper	-9882
uable	-9883
urban	-9884
▁Band	-9885
▁Bull	-9886
▁Cruz	-9887
▁Lyon	-9888
▁Shaw	-9889
▁Tell	-9890
▁buck	-9891
▁rear	-9892
▁spac	-9893
▁topp	-9894
acular	-9895
ventus	-9896
▁Osama	-9897
▁Schul	-9898
▁Starr	-9899
▁chaos	-9900
▁clock	-9901
▁dated	-9902
▁fatig	-9903
▁opens	-9904
▁walks	-9905
mission	-9906
▁Holmes	-9907
▁Patrol	-9908
▁Victor	-9909
▁bitter	-9910
▁calend	-9911
▁divers	-9912
▁extrad	-9913
▁filing	-9914
▁forecl	-9915
▁random	-9916
▁raping	-9917
▁scheme	-9918
▁sharia	-9919
▁unfair	-9920
esterday	-9921
▁Memphis	-9922
▁balloon	-9923
▁boarded	-9924
▁exports	-9925
▁storage	-9926
▁Djokovic	-9927
▁basement	-9928
▁deciding	-9929
▁mainland	-9930
▁opposite	-9931
▁shelters	-9932
▁theaters	-9933
▁Alzheimer	-9934
▁Stockholm	-9935
▁appearing	-9936
▁expansion	-9937
▁announcing	-9938
▁subsequent	-9939
▁contestants	-9940
▁northeastern	-9941
END	-9942
aio	-9943
emi	-9944
zes	-9945
▁2-	-9946
▁NY	-9947
Most	-9948
arta	-9949
igen	-9950
ques	-9951
▁$20	-9952
▁1-1	-9953
▁DEA	-9954
▁Dre	-9955
▁Kas	-9956
▁Saw	-9957
▁Tel	-9958
▁bip	-9959
▁fug	-9960
▁www	-9961
ailed	-9962
apova	-9963
itage	-9964
peare	-9965
▁Baby	-9966
▁Conf	-9967
▁Reed	-9968
▁arra	-9969
▁desk	-9970
▁gear	-9971
▁hadn	-9972
▁mamm	-9973
▁tiny	-9974
enberg	-9975
icians	-9976
icious	-9977
▁2001.	-9978
▁Reyes	-9979
▁Stern	-9980
▁Vance	-9981
▁blank	-9982
▁burgl	-9983
▁dealt	-9984
▁exped	-9985
▁fence	-9986
enhagen	-9987
▁Father	-9988
▁Havana	-9989
▁Nicole	-9990
▁Roland	-9991
▁Senior	-9992
▁Shakes	-9993
▁horses	-9994
▁scared	-9995
▁urging	-9996
▁Centers	-9997
▁Jessica	-9998
▁Melissa	-9999
▁Somalis	-10000
▁acceler	-10001
▁autonom	-10002
▁cholera	-10003
▁cockpit	-10004
▁enjoyed	-10005
▁jewelry	-10006
▁municip	-10007
▁pageant	-10008
▁premier	-10009
▁tension	-10010
President	-10011
▁Festival	-10012
▁Martinez	-10013
▁McDonald	-10014
▁Moussavi	-10015
▁isolated	-10016
▁managing	-10017
▁mourning	-10018
▁selected	-10019
▁Sharapova	-10020
▁Wisconsin	-10021
▁collected	-10022
▁conflicts	-10023
▁exercises	-10024
▁fantastic	-10025
▁semifinal	-10026
▁sovereign	-10027
▁transform	-10028
▁Craigslist	-10029
▁Micheletti	-10030
▁extremists	-10031
▁instrument	-10032
▁wheelchair	-10033
▁Information	-10034
▁Shakespeare	-10035
▁appearances	-10036
▁differences	-10037
▁participants	-10038
,'"	-10039
Any	-10040
ERE	-10041
ICK	-10042
aho	-10043
bel	-10044
olt	-10045
roc	-10046
▁Py	-10047
▁ju	-10048
▁vs	-10049
afia	-10050
alle	-10051
amps	-10052
hist	-10053
hone	-10054
iago	-10055
oken	-10056
rams	-10057
then	-10058
▁Cle	-10059
▁Pic	-10060
▁Run	-10061
▁SEA	-10062
▁Sha	-10063
▁Vel	-10064
▁Yes	-10065
▁ads	-10066
▁bic	-10067
▁pap	-10068
ctica	-10069
esome	-10070
fires	-10071
ifies	-10072
iture	-10073
ships	-10074
there	-10075
▁Buen	-10076
▁Circ	-10077
▁Ivan	-10078
▁Look	-10079
▁Nest	-10080
▁Stre	-10081
▁deny	-10082
▁fare	-10083
▁libr	-10084
▁pill	-10085
▁scar	-10086
▁shif	-10087
▁soul	-10088
▁taxi	-10089
▁thin	-10090
▁trem	-10091
ilized	-10092
▁Chand	-10093
▁Filip	-10094
▁Guine	-10095
▁Rajap	-10096
▁blind	-10097
▁lined	-10098
▁tents	-10099
▁tools	-10100
sharing	-10101
▁Caylee	-10102
▁Ciudad	-10103
▁Donald	-10104
▁Golden	-10105
▁Harbor	-10106
▁Monroe	-10107
▁burial	-10108
▁passes	-10109
▁strain	-10110
▁submar	-10111
▁Austria	-10112
▁Belgium	-10113
▁Hamburg	-10114
▁Pirates	-10115
▁affects	-10116
▁customs	-10117
▁formula	-10118
▁hardest	-10119
▁nervous	-10120
▁studied	-10121
▁undergo	-10122
▁Salvador	-10123
▁bacteria	-10124
▁credited	-10125
▁discover	-10126
▁exposure	-10127
▁missions	-10128
▁opponent	-10129
▁plotting	-10130
▁watchdog	-10131
▁wounding	-10132
▁affecting	-10133
▁afterward	-10134
▁attackers	-10135
▁guarantee	-10136
▁launching	-10137
▁offenders	-10138
▁prevented	-10139
▁scientist	-10140
▁underwent	-10141
▁videotape	-10142
▁Antarctica	-10143
▁aggressive	-10144
▁devastated	-10145
▁evacuation	-10146
▁remarkable	-10147
▁pornography	-10148
▁contaminated	-10149
▁administrators	-10150
▁discrimination	-10151
Ne	-10152
OC	-10153
pa	-10154
-19	-10155
▁IR	-10156
▁Lo	-10157
▁Ru	-10158
agle	-10159
aksa	-10160
burn	-10161
grat	-10162
that	-10163
▁$1,	-10164
▁Arp	-10165
▁GMT	-10166
▁Hag	-10167
▁Kle	-10168
▁MTV	-10169
▁sed	-10170
elves	-10171
emies	-10172
▁1995	-10173
▁Brig	-10174
▁CITY	-10175
▁bike	-10176
▁memo	-10177
▁rall	-10178
▁toys	-10179
▁urge	-10180
agojev	-10181
manuel	-10182
master	-10183
▁2010.	-10184
▁Ivory	-10185
▁Janet	-10186
▁Venus	-10187
▁adequ	-10188
▁bench	-10189
▁colon	-10190
▁drown	-10191
▁forth	-10192
▁occas	-10193
▁uncom	-10194
enegger	-10195
ropical	-10196
▁Spokes	-10197
▁conced	-10198
▁faster	-10199
▁landsl	-10200
fighting	-10201
iculture	-10202
▁Oakland	-10203
▁Vermont	-10204
▁charter	-10205
▁concept	-10206
▁congrat	-10207
▁connect	-10208
▁dancing	-10209
▁equival	-10210
▁finance	-10211
▁interim	-10212
▁ranging	-10213
▁ranking	-10214
▁secured	-10215
▁tainted	-10216
agojevich	-10217
▁Honduran	-10218
▁Interpol	-10219
▁backyard	-10220
▁estimate	-10221
▁ultimate	-10222
▁Southwest	-10223
▁fishermen	-10224
▁inspector	-10225
▁spiritual	-10226
▁strategic	-10227
▁separatist	-10228
▁Blagojevich	-10229
▁appointment	-10230
▁description	-10231
▁personality	-10232
▁Intelligence	-10233
IN	-10234
axy	-10235
eus	-10236
hap	-10237
low	-10238
▁74	-10239
Star	-10240
post	-10241
pton	-10242
umph	-10243
ylum	-10244
▁Hut	-10245
▁Ree	-10246
▁WTA	-10247
▁pin	-10248
▁sew	-10249
▁tum	-10250
Space	-10251
borne	-10252
ockey	-10253
oping	-10254
orent	-10255
▁Card	-10256
▁Full	-10257
▁Gand	-10258
▁Gray	-10259
▁Have	-10260
▁Hugo	-10261
▁Jama	-10262
▁Lord	-10263
▁boom	-10264
▁fest	-10265
▁mate	-10266
▁pist	-10267
▁seiz	-10268
▁user	-10269
Bashir	-10270
▁1,500	-10271
▁2002.	-10272
▁Danny	-10273
▁Jerry	-10274
▁Linda	-10275
▁cites	-10276
▁jeans	-10277
▁twins	-10278
iveness	-10279
ranking	-10280
▁Arnold	-10281
▁Attack	-10282
▁Bishop	-10283
▁Dennis	-10284
▁accord	-10285
▁copies	-10286
▁covers	-10287
▁fierce	-10288
▁funded	-10289
▁locals	-10290
▁oppose	-10291
▁refere	-10292
▁saving	-10293
▁subway	-10294
▁trials	-10295
ancellor	-10296
idelines	-10297
▁Reuters	-10298
▁Stadium	-10299
▁Through	-10300
▁bailout	-10301
▁bottles	-10302
▁choices	-10303
▁filming	-10304
▁legally	-10305
▁profits	-10306
▁qualify	-10307
▁Johannes	-10308
▁Santiago	-10309
▁Students	-10310
▁assigned	-10311
▁collided	-10312
▁counties	-10313
▁romantic	-10314
▁welcomed	-10315
controlled	-10316
▁Rajapaksa	-10317
▁belonging	-10318
▁deadliest	-10319
▁musicians	-10320
▁premature	-10321
▁qualified	-10322
▁spreading	-10323
▁volunteer	-10324
▁Copenhagen	-10325
▁fatalities	-10326
▁salmonella	-10327
▁undercover	-10328
▁application	-10329
▁fundamental	-10330
▁transported	-10331
▁Schwarzenegger	-10332
Sl	-10333
alo	-10334
arn	-10335
bes	-10336
don	-10337
hon	-10338
hou	-10339
mos	-10340
ups	-10341
▁68	-10342
▁FA	-10343
▁Gi	-10344
▁Ul	-10345
Even	-10346
ahon	-10347
ampa	-10348
atan	-10349
gers	-10350
irut	-10351
play	-10352
▁$50	-10353
▁Bat	-10354
▁Pin	-10355
▁Sky	-10356
▁Yon	-10357
▁tex	-10358
annon	-10359
imore	-10360
ledon	-10361
opard	-10362
party	-10363
▁Bund	-10364
▁Fans	-10365
▁HERE	-10366
▁Holy	-10367
▁Mack	-10368
▁Shir	-10369
▁Song	-10370
▁Turn	-10371
▁frag	-10372
▁gymn	-10373
▁halt	-10374
▁rent	-10375
▁scan	-10376
acking	-10377
approp	-10378
cribed	-10379
harmed	-10380
idding	-10381
ocated	-10382
threat	-10383
▁CLICK	-10384
▁Class	-10385
▁Corre	-10386
▁Hobbs	-10387
▁Malik	-10388
▁Until	-10389
▁bones	-10390
▁jihad	-10391
▁pharm	-10392
▁Beirut	-10393
▁Mozart	-10394
▁Palace	-10395
▁brands	-10396
▁breach	-10397
▁desert	-10398
▁exceed	-10399
▁hearts	-10400
▁parked	-10401
▁partly	-10402
▁redist	-10403
▁retali	-10404
▁tackle	-10405
imbledon	-10406
inations	-10407
▁Carroll	-10408
▁Jakarta	-10409
▁Lambert	-10410
▁anymore	-10411
▁factory	-10412
▁forcing	-10413
▁greeted	-10414
▁ignored	-10415
▁kingdom	-10416
▁longest	-10417
▁mothers	-10418
▁portion	-10419
▁recruit	-10420
▁tactics	-10421
▁therapy	-10422
ropolitan	-10423
▁$100,000	-10424
▁Kandahar	-10425
▁Refugees	-10426
▁Victoria	-10427
▁billions	-10428
▁grenades	-10429
▁portrait	-10430
▁predomin	-10431
▁psychiat	-10432
▁standoff	-10433
▁striking	-10434
▁Letterman	-10435
▁desperate	-10436
▁featuring	-10437
▁inflation	-10438
▁literally	-10439
▁observers	-10440
▁penalties	-10441
▁primarily	-10442
▁prominent	-10443
▁somewhere	-10444
▁teenagers	-10445
▁attributed	-10446
▁commanders	-10447
▁conclusion	-10448
▁equivalent	-10449
▁preventing	-10450
▁sufficient	-10451
▁advertising	-10452
▁explanation	-10453
▁inspiration	-10454
▁administrator	-10455
▁significantly	-10456
▁unprecedented	-10457
".	-10458
II	-10459
TE	-10460
Sty	-10461
iya	-10462
net	-10463
pes	-10464
▁64	-10465
▁BM	-10466
▁Ca	-10467
▁Fe	-10468
Just	-10469
acco	-10470
iors	-10471
iser	-10472
isty	-10473
ongo	-10474
wait	-10475
▁Alf	-10476
▁Bad	-10477
▁Dri	-10478
▁Fay	-10479
▁Hem	-10480
▁Imp	-10481
▁Kal	-10482
▁PKK	-10483
▁cub	-10484
aders	-10485
atile	-10486
guard	-10487
igate	-10488
offic	-10489
rewer	-10490
scale	-10491
stage	-10492
▁Anne	-10493
▁Corn	-10494
▁Dian	-10495
▁Drew	-10496
▁Huss	-10497
▁Mend	-10498
▁Next	-10499
▁Peer	-10500
▁Rain	-10501
▁Sara	-10502
▁bout	-10503
▁bust	-10504
▁chap	-10505
▁dece	-10506
▁garb	-10507
▁gest	-10508
▁nose	-10509
▁wine	-10510
argest	-10511
earing	-10512
embers	-10513
urches	-10514
▁Barry	-10515
▁Charg	-10516
▁Uribe	-10517
▁guess	-10518
▁laund	-10519
▁minds	-10520
▁revel	-10521
▁skull	-10522
▁stead	-10523
▁thick	-10524
▁uncon	-10525
▁usual	-10526
raining	-10527
▁Angela	-10528
▁Arpaio	-10529
▁Athens	-10530
▁Friend	-10531
▁Global	-10532
▁Hitler	-10533
▁Justin	-10534
▁Santos	-10535
▁Silver	-10536
▁Winter	-10537
▁asylum	-10538
▁blames	-10539
▁giants	-10540
▁landsc	-10541
▁refuse	-10542
▁riding	-10543
ographed	-10544
▁Charlie	-10545
▁McMahon	-10546
▁battles	-10547
▁deficit	-10548
▁divided	-10549
▁privile	-10550
▁steroid	-10551
▁writers	-10552
▁Regional	-10553
▁eligible	-10554
▁reflects	-10555
▁senators	-10556
▁threaten	-10557
▁unveiled	-10558
▁Michoacan	-10559
▁communist	-10560
▁investors	-10561
▁surrender	-10562
▁violating	-10563
▁Mayweather	-10564
▁democratic	-10565
▁dispatched	-10566
▁legitimate	-10567
▁developments	-10568
▁participated	-10569
uj	-10570
xy	-10571
ahn	-10572
col	-10573
juk	-10574
lie	-10575
mat	-10576
oos	-10577
uja	-10578
▁(4	-10579
▁Ak	-10580
▁ug	-10581
anao	-10582
appy	-10583
erez	-10584
high	-10585
plus	-10586
uter	-10587
▁11.	-10588
▁Ana	-10589
▁Fat	-10590
▁Gas	-10591
▁Nas	-10592
▁Wol	-10593
▁lyr	-10594
▁syn	-10595
Style	-10596
amber	-10597
oured	-10598
pects	-10599
shore	-10600
speed	-10601
▁Angl	-10602
▁Back	-10603
▁Doug	-10604
▁Gill	-10605
▁Kham	-10606
▁McCh	-10607
▁Todd	-10608
▁burd	-10609
▁fulf	-10610
▁mall	-10611
▁mood	-10612
▁zero	-10613
active	-10614
giving	-10615
thirds	-10616
▁Fargo	-10617
▁Firef	-10618
▁Goody	-10619
▁Immig	-10620
▁Learn	-10621
▁Micro	-10622
▁euros	-10623
▁ferry	-10624
▁gangs	-10625
▁steel	-10626
indanao	-10627
▁Miguel	-10628
▁iPhone	-10629
▁mutual	-10630
▁tanker	-10631
▁Hernand	-10632
▁Phillip	-10633
▁Records	-10634
▁bedroom	-10635
▁drawing	-10636
▁fitness	-10637
▁painted	-10638
▁ratings	-10639
▁settled	-10640
▁sisters	-10641
▁Heathrow	-10642
▁assembly	-10643
▁attitude	-10644
▁controls	-10645
▁judicial	-10646
▁stunning	-10647
▁tortured	-10648
▁Witnesses	-10649
▁audiences	-10650
▁ourselves	-10651
▁McChrystal	-10652
▁courthouse	-10653
▁executives	-10654
▁motorcycle	-10655
▁nationally	-10656
▁consecutive	-10657
▁firefighter	-10658
▁necessarily	-10659
▁residential	-10660
▁interrogation	-10661
Pro	-10662
Som	-10663
abs	-10664
hat	-10665
how	-10666
log	-10667
▁76	-10668
▁SU	-10669
▁ow	-10670
offs	-10671
ouch	-10672
▁1.5	-10673
▁Cow	-10674
▁Fif	-10675
▁Jet	-10676
▁Pam	-10677
▁Suz	-10678
▁adj	-10679
▁raw	-10680
▁sty	-10681
▁wal	-10682
Larry	-10683
▁1950	-10684
▁1992	-10685
▁Blue	-10686
▁Budd	-10687
▁Marg	-10688
▁None	-10689
▁acid	-10690
▁jets	-10691
▁obsc	-10692
▁pink	-10693
▁rely	-10694
▁sack	-10695
▁seal	-10696
▁tiss	-10697
ashing	-10698
urance	-10699
urring	-10700
ycling	-10701
▁Aires	-10702
▁Britt	-10703
▁Katie	-10704
▁antib	-10705
▁envoy	-10706
▁fixed	-10707
▁honey	-10708
▁micro	-10709
▁portr	-10710
▁spark	-10711
holders	-10712
igenous	-10713
▁40,000	-10714
▁Buenos	-10715
▁Forbes	-10716
▁Ledger	-10717
▁Soccer	-10718
▁Yonhap	-10719
▁births	-10720
▁paraly	-10721
▁ranked	-10722
▁studio	-10723
▁Actress	-10724
▁Huckaby	-10725
▁Presley	-10726
▁arrives	-10727
▁captive	-10728
▁delight	-10729
▁fastest	-10730
▁involve	-10731
▁renewed	-10732
▁scholar	-10733
▁surrend	-10734
▁terrain	-10735
▁wrapped	-10736
ibilities	-10737
▁Juventus	-10738
▁Violence	-10739
▁adoption	-10740
▁churches	-10741
▁deadline	-10742
▁entirely	-10743
▁firearms	-10744
▁justices	-10745
▁managers	-10746
▁studying	-10747
▁unharmed	-10748
▁Baltimore	-10749
▁Guatemala	-10750
▁Kurdistan	-10751
▁Nashville	-10752
▁Wimbledon	-10753
▁furniture	-10754
▁legendary	-10755
▁publicity	-10756
▁reference	-10757
▁Ambassador	-10758
▁critically	-10759
▁explosions	-10760
▁researcher	-10761
▁specialist	-10762
▁suspension	-10763
▁celebrating	-10764
▁medications	-10765
▁unidentified	-10766
LS	-10767
mi	-10768
vy	-10769
.'"	-10770
Bay	-10771
Let	-10772
obs	-10773
▁95	-10774
▁ME	-10775
▁Ni	-10776
▁Ow	-10777
▁id	-10778
ICEF	-10779
alsh	-10780
apes	-10781
enei	-10782
hend	-10783
iang	-10784
leen	-10785
teen	-10786
▁(19	-10787
▁2.5	-10788
▁Lab	-10789
▁Oss	-10790
▁Sed	-10791
▁bol	-10792
▁cig	-10793
▁tag	-10794
atern	-10795
eting	-10796
ieves	-10797
osals	-10798
rieve	-10799
stant	-10800
▁Buck	-10801
▁Cour	-10802
▁Ferg	-10803
▁MEND	-10804
▁Samp	-10805
▁Shep	-10806
▁aide	-10807
▁bump	-10808
▁cope	-10809
▁flat	-10810
▁ware	-10811
ranean	-10812
▁Claud	-10813
▁Hamid	-10814
▁Klein	-10815
▁Marie	-10816
▁Study	-10817
▁Walsh	-10818
▁drone	-10819
▁loves	-10820
▁pleas	-10821
▁reass	-10822
▁yards	-10823
borough	-10824
▁Financ	-10825
▁Guinea	-10826
▁Kuwait	-10827
▁Naples	-10828
▁Newark	-10829
▁Sharif	-10830
▁Thanks	-10831
▁allege	-10832
▁circle	-10833
▁excell	-10834
▁forens	-10835
▁franch	-10836
▁loaded	-10837
▁outfit	-10838
▁praise	-10839
▁salary	-10840
▁smooth	-10841
▁superb	-10842
▁uncons	-10843
▁Afghans	-10844
▁Network	-10845
▁Rangers	-10846
▁Student	-10847
▁avoided	-10848
▁diverse	-10849
▁emotion	-10850
▁examine	-10851
▁patrols	-10852
▁savings	-10853
▁Ethiopia	-10854
▁answered	-10855
▁distress	-10856
▁landmark	-10857
▁ordinary	-10858
▁rankings	-10859
▁withdrew	-10860
▁Hernandez	-10861
▁Political	-10862
▁advocates	-10863
▁campaigns	-10864
▁columnist	-10865
▁displayed	-10866
▁negotiate	-10867
▁yesterday	-10868
▁contractor	-10869
▁situations	-10870
▁wrongdoing	-10871
▁Agriculture	-10872
▁peacekeeping	-10873
▁prostitution	-10874
▁unacceptable	-10875
▁unsuccessful	-10876
▁reconciliation	-10877
1-	-10878
cla	-10879
oty	-10880
ses	-10881
▁Es	-10882
▁Sn	-10883
▁Zh	-10884
airy	-10885
ante	-10886
athy	-10887
deep	-10888
ecca	-10889
eted	-10890
fare	-10891
glas	-10892
idal	-10893
leep	-10894
lete	-10895
loyd	-10896
ulpt	-10897
yang	-10898
▁Cro	-10899
▁Cyr	-10900
▁ETA	-10901
▁Hil	-10902
▁Nav	-10903
▁Rou	-10904
▁bes	-10905
▁rot	-10906
▁upp	-10907
adies	-10908
enant	-10909
lings	-10910
raham	-10911
umdog	-10912
▁Burn	-10913
▁Kenn	-10914
▁Paso	-10915
▁Shin	-10916
▁Such	-10917
▁Trib	-10918
▁Ward	-10919
▁Wine	-10920
▁aged	-10921
▁bone	-10922
▁hook	-10923
▁iron	-10924
▁lapt	-10925
▁shoe	-10926
▁span	-10927
ateral	-10928
igious	-10929
rative	-10930
▁Blair	-10931
▁Croat	-10932
▁Hutch	-10933
▁Laure	-10934
▁Never	-10935
▁Osset	-10936
▁Peruv	-10937
▁Shell	-10938
▁pride	-10939
▁races	-10940
▁rifle	-10941
▁shook	-10942
▁tours	-10943
▁warns	-10944
osexual	-10945
raising	-10946
respons	-10947
ultural	-10948
▁Border	-10949
▁Brewer	-10950
▁Brooks	-10951
▁Fergus	-10952
▁Madoff	-10953
▁Norway	-10954
▁Rohing	-10955
▁blasts	-10956
▁blocks	-10957
▁dreams	-10958
▁misdem	-10959
▁rivers	-10960
▁voices	-10961
▁300,000	-10962
▁Andrews	-10963
▁Hussain	-10964
▁Jeffrey	-10965
▁honored	-10966
▁readers	-10967
▁Khamenei	-10968
▁Levinson	-10969
▁Mountain	-10970
▁achieved	-10971
▁advisory	-10972
▁detailed	-10973
▁deterior	-10974
▁explains	-10975
▁improper	-10976
▁interven	-10977
▁murdered	-10978
▁purposes	-10979
▁relieved	-10980
▁starring	-10981
iterranean	-10982
▁existence	-10983
▁increases	-10984
▁lightning	-10985
▁narcotics	-10986
▁principal	-10987
▁recorders	-10988
▁submitted	-10989
▁detectives	-10990
▁membership	-10991
▁encouraging	-10992
▁essentially	-10993
▁recognition	-10994
▁Environmental	-10995
75	-10996
88	-10997
FO	-10998
LU	-10999
OK	-11000
HCR	-11001
aws	-11002
lon	-11003
▁96	-11004
▁Uy	-11005
oons	-11006
othy	-11007
rene	-11008
rors	-11009
uits	-11010
ynam	-11011
▁22-	-11012
▁6-4	-11013
▁Aid	-11014
▁Cab	-11015
▁Emp	-11016
▁Jor	-11017
▁Sod	-11018
▁ecl	-11019
actor	-11020
ewalk	-11021
liner	-11022
ouver	-11023
unity	-11024
▁Crew	-11025
▁Golf	-11026
▁Hein	-11027
▁Mort	-11028
▁Stri	-11029
▁copy	-11030
▁medi	-11031
▁myst	-11032
▁slam	-11033
onduct	-11034
ronics	-11035
utical	-11036
▁Baker	-11037
▁Banks	-11038
▁Fidel	-11039
▁Honda	-11040
▁Seoul	-11041
▁Wells	-11042
▁bands	-11043
▁crazy	-11044
▁eager	-11045
▁urban	-11046
ception	-11047
ocument	-11048
▁Celebr	-11049
▁Hariri	-11050
▁Living	-11051
▁Motors	-11052
▁Secret	-11053
▁Torres	-11054
▁UNICEF	-11055
▁abuses	-11056
▁inmate	-11057
▁lyrics	-11058
▁observ	-11059
▁overth	-11060
▁routes	-11061
▁unders	-11062
neapolis	-11063
▁Abraham	-11064
▁Ferrari	-11065
▁Workers	-11066
▁forests	-11067
▁grabbed	-11068
▁lesbian	-11069
▁pulling	-11070
▁strange	-11071
▁stuffed	-11072
▁suffers	-11073
▁updates	-11074
▁visible	-11075
▁Portland	-11076
▁Tropical	-11077
▁expanded	-11078
▁phenomen	-11079
▁Bloomberg	-11080
▁Microsoft	-11081
▁basically	-11082
▁considers	-11083
▁diplomats	-11084
▁reviewing	-11085
▁Indonesian	-11086
▁consistent	-11087
▁controller	-11088
▁impressive	-11089
▁processing	-11090
▁Immigration	-11091
▁Millionaire	-11092
▁disciplinary	-11093
▁Mediterranean	-11094
▁complications	-11095
▁participation	-11096
▁identification	-11097
0-	-11098
eli	-11099
fax	-11100
▁CD	-11101
▁NA	-11102
emed	-11103
mons	-11104
odes	-11105
prom	-11106
ucks	-11107
udes	-11108
▁$16	-11109
▁14.	-11110
▁Cit	-11111
▁Eid	-11112
▁Eld	-11113
▁Est	-11114
▁Gro	-11115
▁Ike	-11116
▁Joy	-11117
▁Liv	-11118
▁Rap	-11119
▁SUV	-11120
▁Sir	-11121
▁Was	-11122
▁unt	-11123
acent	-11124
berry	-11125
encer	-11126
ested	-11127
henge	-11128
ouses	-11129
ument	-11130
▁Body	-11131
▁Laut	-11132
▁Lion	-11133
▁Magu	-11134
▁Maur	-11135
▁Salt	-11136
▁Talk	-11137
▁Umar	-11138
▁bans	-11139
▁evil	-11140
▁joke	-11141
▁misc	-11142
▁poly	-11143
▁riot	-11144
▁spin	-11145
▁worn	-11146
estone	-11147
itched	-11148
ounted	-11149
upiter	-11150
▁Alger	-11151
▁Jesse	-11152
▁Libya	-11153
▁Light	-11154
▁Medic	-11155
▁Pyong	-11156
▁Rhode	-11157
▁Short	-11158
▁boxes	-11159
▁flags	-11160
▁maker	-11161
▁moral	-11162
▁posts	-11163
▁sends	-11164
Slumdog	-11165
iculous	-11166
ocation	-11167
▁Galaxy	-11168
▁Prison	-11169
▁bipart	-11170
▁cleric	-11171
▁compat	-11172
▁engage	-11173
▁graves	-11174
▁harbor	-11175
▁lowest	-11176
▁silent	-11177
▁staged	-11178
▁taught	-11179
boarding	-11180
breaking	-11181
ortunate	-11182
▁Mandela	-11183
▁Roberto	-11184
▁banning	-11185
▁battled	-11186
▁crashes	-11187
▁deserve	-11188
▁enthusi	-11189
▁garbage	-11190
▁handful	-11191
▁pleased	-11192
▁reforms	-11193
▁removal	-11194
▁resumed	-11195
▁shaking	-11196
intendent	-11197
▁cleaning	-11198
▁eruption	-11199
▁expenses	-11200
▁throwing	-11201
▁trillion	-11202
▁Education	-11203
▁Jefferson	-11204
▁Pyongyang	-11205
▁breathing	-11206
▁confessed	-11207
▁expanding	-11208
▁municipal	-11209
▁passports	-11210
▁postponed	-11211
▁appreciate	-11212
▁deliveries	-11213
▁recovering	-11214
▁Minneapolis	-11215
▁anticipated	-11216
▁differently	-11217
▁unconscious	-11218
▁celebrations	-11219
▁northwestern	-11220
▁independently	-11221
▁manufacturers	-11222
▁predominantly	-11223
--	-11224
36	-11225
ci	-11226
TTE	-11227
ebr	-11228
eta	-11229
hop	-11230
iva	-11231
kok	-11232
oga	-11233
rum	-11234
From	-11235
Well	-11236
auer	-11237
esse	-11238
list	-11239
phib	-11240
pled	-11241
▁19-	-11242
▁192	-11243
▁Cpl	-11244
▁Esc	-11245
▁Mom	-11246
▁Naj	-11247
▁Try	-11248
▁Zak	-11249
domin	-11250
ighed	-11251
inder	-11252
inely	-11253
olves	-11254
ossip	-11255
owder	-11256
proof	-11257
vaged	-11258
▁Bosn	-11259
▁Burk	-11260
▁Hend	-11261
▁Tanz	-11262
▁ally	-11263
▁boot	-11264
▁code	-11265
▁gate	-11266
▁gray	-11267
▁leak	-11268
▁mild	-11269
▁shed	-11270
▁symp	-11271
▁thri	-11272
▁unse	-11273
anchez	-11274
commun	-11275
icting	-11276
vation	-11277
veston	-11278
▁Bronx	-11279
▁Evans	-11280
▁Johns	-11281
▁Naval	-11282
▁Oprah	-11283
▁brave	-11284
▁bread	-11285
▁buses	-11286
▁marsh	-11287
▁sells	-11288
▁suits	-11289
▁swift	-11290
▁unlaw	-11291
▁upper	-11292
▁wings	-11293
America	-11294
ologies	-11295
powered	-11296
ulating	-11297
▁15,000	-11298
▁Cancer	-11299
▁Foster	-11300
▁Philip	-11301
▁Rogers	-11302
▁Ticket	-11303
▁heroes	-11304
▁ingred	-11305
▁insult	-11306
▁lesson	-11307
▁parade	-11308
▁racist	-11309
▁stones	-11310
▁stroke	-11311
▁treaty	-11312
▁urgent	-11313
children	-11314
friendly	-11315
▁200,000	-11316
▁Bangkok	-11317
▁Douglas	-11318
▁History	-11319
▁McLaren	-11320
▁Sanchez	-11321
▁Science	-11322
▁crushed	-11323
▁disagre	-11324
▁picking	-11325
▁reverse	-11326
isticated	-11327
terrorism	-11328
terweight	-11329
▁Ferguson	-11330
▁Peruvian	-11331
▁Rohingya	-11332
▁advocate	-11333
▁contrast	-11334
▁gorillas	-11335
▁graduate	-11336
▁landfall	-11337
▁lawmaker	-11338
▁persecut	-11339
▁shortage	-11340
▁supervis	-11341
▁thrilled	-11342
▁Arlington	-11343
▁Galveston	-11344
▁Professor	-11345
▁construct	-11346
▁districts	-11347
▁franchise	-11348
▁inaugural	-11349
▁nutrition	-11350
▁promising	-11351
▁proposals	-11352
▁requiring	-11353
▁uncovered	-11354
▁Conference	-11355
▁depression	-11356
▁electrical	-11357
▁incredibly	-11358
▁patrolling	-11359
▁physically	-11360
▁discussions	-11361
▁frustration	-11362
▁generations	-11363
▁Johannesburg	-11364
▁southwestern	-11365
▁administrative	-11366
▁disappointment	-11367
-5	-11368
19	-11369
:15	-11370
Bal	-11371
ICO	-11372
met	-11373
nan	-11374
▁SA	-11375
alan	-11376
anim	-11377
awad	-11378
baum	-11379
coni	-11380
dick	-11381
gart	-11382
ingu	-11383
olks	-11384
otte	-11385
ours	-11386
ovan	-11387
▁26-	-11388
▁Add	-11389
▁Aud	-11390
▁Fah	-11391
▁Hul	-11392
▁Inf	-11393
▁Jol	-11394
▁Nag	-11395
▁Sig	-11396
▁ank	-11397
▁rub	-11398
▁ske	-11399
7,000	-11400
emble	-11401
iples	-11402
oline	-11403
▁Born	-11404
▁Hart	-11405
▁List	-11406
▁Vanc	-11407
▁aunt	-11408
▁pays	-11409
▁stom	-11410
▁synd	-11411
▁tool	-11412
escope	-11413
iverse	-11414
▁Check	-11415
▁Chung	-11416
▁Cyrus	-11417
▁Field	-11418
▁Floyd	-11419
▁Kumar	-11420
▁Stutt	-11421
▁Techn	-11422
▁alter	-11423
▁artif	-11424
▁clues	-11425
▁elite	-11426
▁embry	-11427
▁juven	-11428
▁proof	-11429
▁quant	-11430
▁skept	-11431
▁stone	-11432
▁stops	-11433
lusconi	-11434
▁Avenue	-11435
▁Nathan	-11436
▁Oscars	-11437
▁Serbia	-11438
▁Sports	-11439
▁anyway	-11440
▁barely	-11441
▁bottle	-11442
▁exempt	-11443
▁fiance	-11444
▁horror	-11445
▁housed	-11446
▁legacy	-11447
▁please	-11448
▁reiter	-11449
▁sealed	-11450
▁sketch	-11451
▁unanim	-11452
▁youths	-11453
▁Further	-11454
▁Jupiter	-11455
▁Roddick	-11456
▁Rwandan	-11457
▁aftersh	-11458
▁appoint	-11459
▁bonuses	-11460
▁confron	-11461
▁kitchen	-11462
▁leftist	-11463
▁offense	-11464
▁outlets	-11465
▁sandbag	-11466
▁shooter	-11467
▁supreme	-11468
▁takeoff	-11469
▁violate	-11470
▁wealthy	-11471
▁burglary	-11472
▁divorced	-11473
▁musician	-11474
▁pipeline	-11475
▁prostate	-11476
▁resolved	-11477
▁sporting	-11478
▁teammate	-11479
▁tomorrow	-11480
▁Bollywood	-11481
▁Fernandez	-11482
▁Jordanian	-11483
▁Stuttgart	-11484
▁improving	-11485
▁lifestyle	-11486
▁pollution	-11487
▁promoting	-11488
▁contribute	-11489
▁identities	-11490
▁properties	-11491
▁experiencing	-11492
▁Congressional	-11493
▁Investigation	-11494
BUL	-11495
Don	-11496
ING	-11497
Not	-11498
aco	-11499
bye	-11500
eah	-11501
irm	-11502
nut	-11503
▁Ko	-11504
▁UC	-11505
Mich	-11506
awah	-11507
girl	-11508
iere	-11509
itty	-11510
kick	-11511
liga	-11512
orer	-11513
oser	-11514
otes	-11515
▁130	-11516
▁20.	-11517
▁25.	-11518
▁Adm	-11519
▁Alt	-11520
▁BMW	-11521
▁Els	-11522
▁Eve	-11523
▁Sey	-11524
▁Tah	-11525
▁dug	-11526
ewhat	-11527
inced	-11528
lined	-11529
oning	-11530
sized	-11531
▁$150	-11532
▁ACLU	-11533
▁Bart	-11534
▁Bout	-11535
▁Buff	-11536
▁Hugh	-11537
▁Lenn	-11538
▁Rudd	-11539
▁Ruth	-11540
▁Uygh	-11541
▁Zard	-11542
▁cycl	-11543
▁eBay	-11544
▁eggs	-11545
▁glad	-11546
elfare	-11547
esliga	-11548
market	-11549
▁Again	-11550
▁Along	-11551
▁Samoa	-11552
▁Tampa	-11553
▁cruel	-11554
▁depth	-11555
▁farms	-11556
▁funny	-11557
▁loans	-11558
▁mudsl	-11559
▁prote	-11560
▁sweat	-11561
▁tired	-11562
awahiri	-11563
century	-11564
largest	-11565
▁70,000	-11566
▁Amanda	-11567
▁Expert	-11568
▁Harvey	-11569
▁Maoist	-11570
▁Nestle	-11571
▁Yemeni	-11572
▁barred	-11573
▁clergy	-11574
▁destro	-11575
▁fights	-11576
▁finger	-11577
▁indeed	-11578
▁manage	-11579
▁rarely	-11580
▁throat	-11581
▁toilet	-11582
▁Bahrain	-11583
▁Capital	-11584
▁Morocco	-11585
▁Stanley	-11586
▁Zardari	-11587
▁careful	-11588
▁compass	-11589
▁element	-11590
▁fatigue	-11591
▁gaining	-11592
▁inspire	-11593
▁library	-11594
▁samples	-11595
▁travels	-11596
▁wanting	-11597
▁worries	-11598
▁Brothers	-11599
▁Georgian	-11600
▁Independ	-11601
▁Kathleen	-11602
▁annually	-11603
▁comedian	-11604
▁constant	-11605
▁dropping	-11606
▁instance	-11607
▁prisoner	-11608
▁receives	-11609
▁recorder	-11610
▁valuable	-11611
▁Financial	-11612
▁Vancouver	-11613
▁Winehouse	-11614
▁conscious	-11615
▁corporate	-11616
▁delegates	-11617
▁directors	-11618
▁mentioned	-11619
▁nationals	-11620
▁provision	-11621
▁sacrifice	-11622
▁struggles	-11623
fortunately	-11624
▁Berlusconi	-11625
▁Bundesliga	-11626
▁Geological	-11627
▁Passengers	-11628
▁Zimbabwean	-11629
▁compromise	-11630
▁delivering	-11631
▁frustrated	-11632
▁highlights	-11633
▁infections	-11634
▁occupation	-11635
▁phenomenon	-11636
▁suggesting	-11637
▁treatments	-11638
▁agriculture	-11639
▁congressman	-11640
▁coordinated	-11641
▁departments	-11642
▁preparation	-11643
▁arrangements	-11644
▁difficulties	-11645
▁psychological	-11646
ME	-11647
SP	-11648
eu	-11649
-20	-11650
:45	-11651
Con	-11652
had	-11653
his	-11654
igl	-11655
oda	-11656
oro	-11657
say	-11658
top	-11659
uns	-11660
voc	-11661
▁59	-11662
▁Ja	-11663
▁KA	-11664
achi	-11665
alia	-11666
atab	-11667
quer	-11668
sign	-11669
soon	-11670
ught	-11671
▁11-	-11672
▁AEG	-11673
▁AIG	-11674
▁Bag	-11675
▁GPS	-11676
▁Laf	-11677
▁Nik	-11678
▁Pon	-11679
▁Rif	-11680
▁Vin	-11681
▁bug	-11682
▁mol	-11683
▁sib	-11684
▁von	-11685
aniya	-11686
ensed	-11687
front	-11688
igger	-11689
ilize	-11690
olded	-11691
orous	-11692
pound	-11693
ulent	-11694
▁Bain	-11695
▁Boyd	-11696
▁Gene	-11697
▁Judd	-11698
▁Make	-11699
▁Siro	-11700
▁Wars	-11701
▁desc	-11702
▁echo	-11703
▁hell	-11704
▁hunt	-11705
▁noon	-11706
▁odds	-11707
▁slot	-11708
▁tatt	-11709
▁unle	-11710
icient	-11711
▁Ampat	-11712
▁Lynch	-11713
▁Misty	-11714
▁Petra	-11715
▁Plane	-11716
▁Rossi	-11717
▁dough	-11718
▁exile	-11719
▁files	-11720
▁masks	-11721
▁overc	-11722
▁pants	-11723
▁shake	-11724
▁tanks	-11725
▁upris	-11726
▁venue	-11727
flagged	-11728
general	-11729
issance	-11730
reprene	-11731
▁Ashley	-11732
▁Fourth	-11733
▁Gandhi	-11734
▁Harare	-11735
▁Tennis	-11736
▁Ukrain	-11737
▁ballot	-11738
▁borrow	-11739
▁hailed	-11740
▁hungry	-11741
▁interf	-11742
▁makeup	-11743
▁profit	-11744
▁reinst	-11745
orentina	-11746
▁Markoff	-11747
▁Spencer	-11748
▁Typhoon	-11749
▁artific	-11750
▁bridges	-11751
▁closest	-11752
▁condemn	-11753
▁damages	-11754
▁dangers	-11755
▁hosting	-11756
▁insists	-11757
▁prisons	-11758
▁reveals	-11759
▁silence	-11760
▁stormed	-11761
▁Economic	-11762
▁Lawrence	-11763
▁Princess	-11764
▁hearings	-11765
▁releases	-11766
▁saddened	-11767
▁volatile	-11768
▁Cambridge	-11769
▁Melbourne	-11770
▁Northwest	-11771
▁Southeast	-11772
▁convinced	-11773
▁immigrant	-11774
▁integrity	-11775
▁physician	-11776
▁promotion	-11777
▁slaughter	-11778
▁wildfires	-11779
▁capability	-11780
▁undergoing	-11781
▁accountable	-11782
▁investments	-11783
▁perspective	-11784
▁unfortunate	-11785
▁Presidential	-11786
▁manufacturing	-11787
▁sophisticated	-11788
NC	-11789
chi	-11790
cod	-11791
cut	-11792
lif	-11793
olo	-11794
rue	-11795
xel	-11796
▁72	-11797
▁Kr	-11798
▁Wu	-11799
▁ce	-11800
cery	-11801
hman	-11802
inos	-11803
outi	-11804
rise	-11805
▁21.	-11806
▁29-	-11807
▁34,	-11808
▁Aqu	-11809
▁Jav	-11810
▁Pap	-11811
▁Rat	-11812
amped	-11813
ancer	-11814
anski	-11815
ching	-11816
ether	-11817
owski	-11818
world	-11819
▁1993	-11820
▁Cind	-11821
▁Comb	-11822
▁Main	-11823
▁chef	-11824
▁deck	-11825
▁exha	-11826
▁impe	-11827
Shabab	-11828
elines	-11829
ourage	-11830
qualif	-11831
▁Brink	-11832
▁Hindu	-11833
▁Rescu	-11834
▁Sales	-11835
▁Spani	-11836
▁UNHCR	-11837
▁ankle	-11838
▁argue	-11839
▁doses	-11840
▁falls	-11841
▁fines	-11842
▁firms	-11843
▁grief	-11844
▁holes	-11845
▁ninth	-11846
▁pione	-11847
▁siege	-11848
▁tally	-11849
▁uncle	-11850
elihood	-11851
icating	-11852
igation	-11853
sterdam	-11854
umbling	-11855
▁Empire	-11856
▁Rachel	-11857
▁Safina	-11858
▁bishop	-11859
▁broadc	-11860
▁frozen	-11861
▁gender	-11862
▁junior	-11863
▁rating	-11864
▁regain	-11865
▁sculpt	-11866
▁wicket	-11867
▁zombie	-11868
ilateral	-11869
otherapy	-11870
▁Current	-11871
▁Harvard	-11872
▁climbed	-11873
▁imports	-11874
▁killers	-11875
▁mandate	-11876
▁mystery	-11877
▁rapidly	-11878
▁richest	-11879
▁tracked	-11880
▁tremend	-11881
▁Ampatuan	-11882
▁Interfax	-11883
▁disclose	-11884
▁employed	-11885
▁formerly	-11886
▁inapprop	-11887
▁launches	-11888
▁reducing	-11889
▁reopened	-11890
▁tracking	-11891
▁Amsterdam	-11892
▁Peninsula	-11893
▁anonymous	-11894
▁automatic	-11895
▁consulate	-11896
▁generated	-11897
▁movements	-11898
▁screaming	-11899
stitutional	-11900
threatening	-11901
▁Chancellor	-11902
▁Fiorentina	-11903
▁Ronaldinho	-11904
▁indigenous	-11905
▁industries	-11906
▁prevention	-11907
▁principles	-11908
▁achievement	-11909
▁complicated	-11910
▁controllers	-11911
▁engineering	-11912
▁identifying	-11913
▁indications	-11914
▁sovereignty	-11915
▁Conservation	-11916
▁traditionally	-11917
▁recommendation	-11918
18	-11919
DP	-11920
IR	-11921
sa	-11922
hal	-11923
iaz	-11924
ihu	-11925
lec	-11926
▁0.	-11927
▁85	-11928
▁DV	-11929
Brit	-11930
ahua	-11931
alke	-11932
asch	-11933
avor	-11934
bits	-11935
eway	-11936
ipse	-11937
moil	-11938
orse	-11939
stop	-11940
thal	-11941
▁$2.	-11942
▁14,	-11943
▁27.	-11944
▁32-	-11945
▁7-6	-11946
▁Kap	-11947
▁Low	-11948
▁Pun	-11949
▁Tob	-11950
▁Vol	-11951
▁lip	-11952
▁tel	-11953
▁unh	-11954
Harry	-11955
ateur	-11956
exter	-11957
odern	-11958
xiety	-11959
▁1988	-11960
▁Hans	-11961
▁Moto	-11962
▁Much	-11963
▁Past	-11964
▁Reid	-11965
▁Rust	-11966
▁Ship	-11967
▁Teen	-11968
▁fasc	-11969
▁grat	-11970
▁pets	-11971
▁todd	-11972
▁warn	-11973
itored	-11974
lecito	-11975
ounded	-11976
rehend	-11977
writer	-11978
▁1,200	-11979
▁2000,	-11980
▁Brady	-11981
▁Diane	-11982
▁Perez	-11983
▁admir	-11984
▁aspir	-11985
▁dirty	-11986
▁drunk	-11987
▁famed	-11988
▁loose	-11989
▁lungs	-11990
▁midst	-11991
▁picks	-11992
▁poses	-11993
▁radar	-11994
▁rocks	-11995
▁safer	-11996
▁seeds	-11997
▁trick	-11998
▁vocal	-11999
▁wears	-12000
itement	-12001
selling	-12002
▁Spears	-12003
▁booked	-12004
▁jurors	-12005
▁latter	-12006
▁pardon	-12007
▁pickup	-12008
▁racism	-12009
▁retain	-12010
▁theory	-12011
Zawahiri	-12012
iability	-12013
official	-12014
▁Schuler	-12015
▁Springs	-12016
▁beaches	-12017
▁edition	-12018
▁focuses	-12019
▁forever	-12020
▁methods	-12021
▁praying	-12022
▁reconst	-12023
▁referee	-12024
▁triumph	-12025
▁turmoil	-12026
▁Atlantis	-12027
▁Rescuers	-12028
▁Sullivan	-12029
▁appealed	-12030
▁astronom	-12031
▁belonged	-12032
▁endorsed	-12033
▁expelled	-12034
▁grandson	-12035
▁injuring	-12036
▁register	-12037
▁relating	-12038
▁somewhat	-12039
▁treating	-12040
▁abduction	-12041
▁competing	-12042
▁cooperate	-12043
▁diagnosis	-12044
▁extension	-12045
▁innocence	-12046
▁intensive	-12047
▁maintains	-12048
▁notorious	-12049
▁remembers	-12050
▁solutions	-12051
▁Pakistanis	-12052
▁delegation	-12053
▁employment	-12054
▁Firefighters	-12055
▁Metropolitan	-12056
▁conversations	-12057
3-	-12058
Ad	-12059
LN	-12060
dr	-12061
gi	-12062
ui	-12063
-15	-12064
bec	-12065
fig	-12066
iah	-12067
iev	-12068
oie	-12069
orf	-12070
rup	-12071
she	-12072
try	-12073
▁Il	-12074
▁MS	-12075
▁Ny	-12076
▁Ve	-12077
Mart	-12078
boys	-12079
brid	-12080
inda	-12081
name	-12082
opal	-12083
rock	-12084
tail	-12085
than	-12086
uper	-12087
▁$30	-12088
▁40,	-12089
▁ATP	-12090
▁Bil	-12091
▁Dev	-12092
▁EPA	-12093
▁Gaz	-12094
▁Ian	-12095
▁Kan	-12096
▁Lak	-12097
▁Maz	-12098
▁Rud	-12099
▁Sac	-12100
▁Sin	-12101
▁Taj	-12102
▁Tog	-12103
▁cin	-12104
▁luc	-12105
about	-12106
achts	-12107
amper	-12108
anium	-12109
arazz	-12110
arded	-12111
count	-12112
human	-12113
model	-12114
quest	-12115
ughed	-12116
urred	-12117
▁Berm	-12118
▁Coal	-12119
▁Cold	-12120
▁Days	-12121
▁Disc	-12122
▁Farm	-12123
▁Gust	-12124
▁Kamp	-12125
▁bran	-12126
▁melt	-12127
▁pole	-12128
▁scri	-12129
author	-12130
beaten	-12131
closed	-12132
idance	-12133
itated	-12134
itious	-12135
ograms	-12136
▁6,000	-12137
▁Jolie	-12138
▁Kurds	-12139
▁Metro	-12140
▁Parma	-12141
▁Randy	-12142
▁Turks	-12143
▁adapt	-12144
▁alarm	-12145
▁folks	-12146
▁fruit	-12147
▁plain	-12148
▁polar	-12149
▁prest	-12150
▁rises	-12151
▁shame	-12152
▁taste	-12153
caliber	-12154
caution	-12155
isphere	-12156
istries	-12157
looking	-12158
oration	-12159
▁Bailey	-12160
▁Claren	-12161
▁Greene	-12162
▁Mobile	-12163
▁Player	-12164
▁Rahman	-12165
▁aerial	-12166
▁boxing	-12167
▁corrid	-12168
▁crying	-12169
▁deemed	-12170
▁depend	-12171
▁drinks	-12172
▁fabric	-12173
▁pledge	-12174
▁poured	-12175
▁preced	-12176
▁prejud	-12177
▁rapper	-12178
▁tissue	-12179
▁valley	-12180
▁weekly	-12181
▁wooden	-12182
▁Captain	-12183
▁Collins	-12184
▁Friends	-12185
▁Hossein	-12186
▁MySpace	-12187
▁alerted	-12188
▁barrels	-12189
▁beneath	-12190
▁earning	-12191
▁extract	-12192
▁gorilla	-12193
▁harmful	-12194
▁lengthy	-12195
▁objects	-12196
▁starred	-12197
▁thanked	-12198
abilities	-12199
▁Cameroon	-12200
▁Delaware	-12201
▁Tanzania	-12202
▁abortion	-12203
▁adequate	-12204
▁adjacent	-12205
▁alliance	-12206
▁distinct	-12207
▁equipped	-12208
▁merchand	-12209
▁openings	-12210
▁pointing	-12211
▁stripped	-12212
▁teaching	-12213
▁uniforms	-12214
▁Sollecito	-12215
▁charities	-12216
▁epicenter	-12217
▁hopefully	-12218
▁introduce	-12219
▁mandatory	-12220
▁warehouse	-12221
▁Assistance	-12222
▁artificial	-12223
▁assaulting	-12224
▁comparison	-12225
▁historical	-12226
▁inspectors	-12227
▁resistance	-12228
▁unexpected	-12229
▁cooperating	-12230
▁coordinator	-12231
▁deportation	-12232
32	-12233
BN	-12234
MS	-12235
Of	-12236
Or	-12237
abb	-12238
eyn	-12239
gel	-12240
hea	-12241
▁'0	-12242
▁("	-12243
▁(6	-12244
▁62	-12245
Good	-12246
Many	-12247
boro	-12248
enna	-12249
esar	-12250
fast	-12251
ghai	-12252
iler	-12253
imex	-12254
ivic	-12255
omed	-12256
onic	-12257
only	-12258
oped	-12259
upid	-12260
▁190	-12261
▁21-	-12262
▁27-	-12263
▁6-1	-12264
▁Aub	-12265
▁Bes	-12266
▁Dad	-12267
▁Hum	-12268
▁Tar	-12269
▁bru	-12270
▁eco	-12271
▁oxy	-12272
▁spy	-12273
itled	-12274
kirts	-12275
stick	-12276
uming	-12277
vedev	-12278
▁Dana	-12279
▁Dawn	-12280
▁Djib	-12281
▁Foss	-12282
▁Less	-12283
▁Lynn	-12284
▁Spir	-12285
▁buzz	-12286
▁clar	-12287
▁fals	-12288
▁foul	-12289
▁gust	-12290
▁stir	-12291
airobi	-12292
atross	-12293
lessly	-12294
storms	-12295
uthors	-12296
▁2010,	-12297
▁Chihu	-12298
▁Cutie	-12299
▁Griff	-12300
▁Jimmy	-12301
▁Napol	-12302
▁Sheff	-12303
▁Solar	-12304
▁admit	-12305
▁brill	-12306
▁crush	-12307
▁debts	-12308
▁evalu	-12309
▁minus	-12310
▁poppy	-12311
▁regul	-12312
▁scrut	-12313
atollah	-12314
quarium	-12315
uilding	-12316
▁Almost	-12317
▁Bryant	-12318
▁Dexter	-12319
▁Knight	-12320
▁Parish	-12321
▁Troops	-12322
▁burden	-12323
▁fairly	-12324
▁golfer	-12325
▁gossip	-12326
▁immune	-12327
▁oxygen	-12328
▁pandas	-12329
▁timing	-12330
▁verify	-12331
▁wolves	-12332
........	-12333
▁Bermuda	-12334
▁Chilean	-12335
▁Comoros	-12336
▁Crowley	-12337
▁Neither	-12338
▁Notimex	-12339
▁Product	-12340
▁broader	-12341
▁declare	-12342
▁eclipse	-12343
▁enemies	-12344
▁firearm	-12345
▁habitat	-12346
▁hunting	-12347
▁laughed	-12348
▁martial	-12349
▁obvious	-12350
▁quarant	-12351
▁replied	-12352
▁retreat	-12353
▁stomach	-12354
▁testify	-12355
aceutical	-12356
▁Africans	-12357
▁Cemetery	-12358
▁Clarence	-12359
▁Consumer	-12360
▁Djibouti	-12361
▁Shanghai	-12362
▁Superior	-12363
▁barriers	-12364
▁examined	-12365
▁forensic	-12366
▁grounded	-12367
▁lifeboat	-12368
▁offshore	-12369
▁punished	-12370
▁suitcase	-12371
▁Chihuahua	-12372
▁Christine	-12373
▁Robertson	-12374
▁apprehend	-12375
▁designers	-12376
▁examining	-12377
▁excellent	-12378
▁monitored	-12379
▁prosecute	-12380
▁sensation	-12381
▁shortages	-12382
▁submarine	-12383
▁Interstate	-12384
▁accomplish	-12385
▁celebrated	-12386
▁discussing	-12387
▁imprisoned	-12388
▁precaution	-12389
▁citizenship	-12390
▁highlighted	-12391
▁publication	-12392
▁spectacular	-12393
▁demonstrated	-12394
▁imprisonment	-12395
▁interference	-12396
49	-12397
HL	-12398
HR	-12399
RI	-12400
etz	-12401
hit	-12402
inf	-12403
orb	-12404
tar	-12405
you	-12406
zic	-12407
▁KC	-12408
▁MA	-12409
▁Og	-12410
▁Pa	-12411
adan	-12412
area	-12413
avia	-12414
gard	-12415
hart	-12416
irez	-12417
lock	-12418
mind	-12419
onso	-12420
oust	-12421
rien	-12422
usen	-12423
▁37,	-12424
▁Aer	-12425
▁Bin	-12426
▁Cad	-12427
▁Dah	-12428
▁Eto	-12429
▁Hoy	-12430
▁Tem	-12431
▁fed	-12432
astro	-12433
athon	-12434
olese	-12435
orest	-12436
ovich	-12437
yacht	-12438
▁1983	-12439
▁Abby	-12440
▁Craw	-12441
▁Earl	-12442
▁Herr	-12443
▁Mans	-12444
▁Orig	-12445
▁Page	-12446
▁Vlad	-12447
▁Writ	-12448
▁bron	-12449
▁hill	-12450
▁plun	-12451
▁rice	-12452
▁sink	-12453
icking	-12454
itants	-12455
ometer	-12456
reated	-12457
spoken	-12458
taking	-12459
▁Episc	-12460
▁Jawad	-12461
▁Marse	-12462
▁Order	-12463
▁alien	-12464
▁cheer	-12465
▁hydro	-12466
▁liver	-12467
▁posed	-12468
▁tense	-12469
▁voter	-12470
▁whale	-12471
However	-12472
ebraska	-12473
ilation	-12474
ointing	-12475
parency	-12476
utenant	-12477
▁Dayton	-12478
▁Explos	-12479
▁Fisher	-12480
▁Franco	-12481
▁Govern	-12482
▁Hannah	-12483
▁Holder	-12484
▁Kirkuk	-12485
▁Mohler	-12486
▁Within	-12487
▁amphib	-12488
▁define	-12489
▁enrich	-12490
▁fright	-12491
▁hazard	-12492
▁locate	-12493
▁loving	-12494
▁repeat	-12495
▁resemb	-12496
▁reserv	-12497
▁respir	-12498
▁restra	-12499
▁serial	-12500
▁Indians	-12501
▁Ossetia	-12502
▁arguing	-12503
▁bidding	-12504
▁confisc	-12505
▁constit	-12506
▁contrad	-12507
▁disrupt	-12508
▁rejects	-12509
▁tougher	-12510
▁trailer	-12511
▁Analysts	-12512
▁Columbus	-12513
▁Medvedev	-12514
▁Officers	-12515
▁assisted	-12516
▁calendar	-12517
▁clearing	-12518
▁emerging	-12519
▁gasoline	-12520
▁generate	-12521
▁mentally	-12522
▁migrants	-12523
▁offenses	-12524
▁paparazz	-12525
▁revenues	-12526
▁troubles	-12527
▁Amendment	-12528
▁Assistant	-12529
▁Ayatollah	-12530
▁Community	-12531
▁Episcopal	-12532
▁Sheffield	-12533
▁addiction	-12534
▁container	-12535
▁disclosed	-12536
▁illnesses	-12537
▁intercept	-12538
▁operators	-12539
▁paintings	-12540
▁pipelines	-12541
▁predecess	-12542
▁respected	-12543
▁superstar	-12544
▁assessment	-12545
▁committing	-12546
▁conspiring	-12547
▁consultant	-12548
▁excitement	-12549
▁optimistic	-12550
▁recruiting	-12551
▁Maguindanao	-12552
▁consumption	-12553
▁convictions	-12554
▁improvement	-12555
▁instruments	-12556
▁misdemeanor	-12557
▁negotiating	-12558
▁nominations	-12559
▁chemotherapy	-12560
▁peacekeepers	-12561
CI	-12562
GB	-12563
HA	-12564
aba	-12565
afa	-12566
asg	-12567
box	-12568
isd	-12569
kee	-12570
osl	-12571
ruz	-12572
vas	-12573
▁66	-12574
▁tu	-12575
addy	-12576
avin	-12577
best	-12578
core	-12579
efin	-12580
five	-12581
gate	-12582
hift	-12583
iman	-12584
isms	-12585
izar	-12586
otal	-12587
ride	-12588
rome	-12589
step	-12590
unes	-12591
▁$12	-12592
▁$15	-12593
▁Ard	-12594
▁Bri	-12595
▁Dod	-12596
▁Eis	-12597
▁Fit	-12598
▁PAR	-12599
▁Pir	-12600
▁Tou	-12601
▁UFO	-12602
▁Wen	-12603
▁lun	-12604
▁sin	-12605
▁tar	-12606
▁toy	-12607
▁unw	-12608
Brien	-12609
agger	-12610
ayers	-12611
ierra	-12612
ommod	-12613
▁Bapt	-12614
▁Bond	-12615
▁Must	-12616
▁Slam	-12617
▁Task	-12618
▁Tech	-12619
▁Walt	-12620
▁Zamb	-12621
▁arts	-12622
▁brib	-12623
▁hire	-12624
▁luck	-12625
▁radi	-12626
icants	-12627
itives	-12628
points	-12629
ranger	-12630
tering	-12631
▁1999,	-12632
▁Cindy	-12633
▁Flood	-12634
▁Globe	-12635
▁Pardo	-12636
▁Petty	-12637
▁Polic	-12638
▁Tests	-12639
▁aides	-12640
▁feder	-12641
▁grade	-12642
▁meals	-12643
▁naked	-12644
▁raids	-12645
▁reads	-12646
▁seize	-12647
▁swing	-12648
▁undis	-12649
▁zones	-12650
▁Around	-12651
▁Common	-12652
▁Danish	-12653
▁Libyan	-12654
▁Monica	-12655
▁Tarant	-12656
▁Vladim	-12657
▁aspect	-12658
▁circus	-12659
▁drives	-12660
▁exists	-12661
▁finale	-12662
▁guided	-12663
▁honors	-12664
▁marine	-12665
▁monkey	-12666
▁muscle	-12667
▁myster	-12668
▁permit	-12669
▁powder	-12670
▁reluct	-12671
▁$10,000	-12672
▁Colombo	-12673
▁Eduardo	-12674
▁Nairobi	-12675
▁Parents	-12676
▁Pearson	-12677
▁Zakaria	-12678
▁consist	-12679
▁cooking	-12680
▁creates	-12681
▁flowers	-12682
▁handgun	-12683
▁intends	-12684
▁matched	-12685
▁nursing	-12686
▁painful	-12687
▁placing	-12688
▁texting	-12689
▁watches	-12690
▁weighed	-12691
ilitation	-12692
president	-12693
▁Campaign	-12694
▁Eastwood	-12695
▁Magazine	-12696
▁Nebraska	-12697
▁accommod	-12698
▁arranged	-12699
▁branches	-12700
▁category	-12701
▁confirms	-12702
▁damaging	-12703
▁employer	-12704
▁focusing	-12705
▁pursuing	-12706
▁reunited	-12707
▁sessions	-12708
▁shootout	-12709
▁steroids	-12710
▁Charlotte	-12711
▁Following	-12712
▁acquitted	-12713
▁admission	-12714
▁announces	-12715
▁arguments	-12716
▁carefully	-12717
▁colleague	-12718
▁elephants	-12719
▁engineers	-12720
▁excessive	-12721
▁finishing	-12722
▁forgotten	-12723
▁influenza	-12724
▁lucrative	-12725
▁makeshift	-12726
▁mudslides	-12727
▁occasions	-12728
▁outskirts	-12729
▁partially	-12730
▁rewritten	-12731
▁signature	-12732
▁bipartisan	-12733
▁contracted	-12734
▁emphasized	-12735
▁misconduct	-12736
▁successive	-12737
▁unemployed	-12738
▁approaching	-12739
▁merchandise	-12740
▁mountainous	-12741
▁contribution	-12742
▁manufactured	-12743
▁confrontation	-12744
▁determination	-12745
▁waterboarding	-12746
.8	-12747
14	-12748
BR	-12749
je	-12750
Her	-12751
Mon	-12752
Yes	-12753
aja	-12754
din	-12755
lem	-12756
lim	-12757
omy	-12758
▁78	-12759
▁82	-12760
▁9-	-12761
▁CA	-12762
▁Ry	-12763
▁Ze	-12764
Once	-12765
agua	-12766
asco	-12767
ieva	-12768
mers	-12769
nett	-12770
they	-12771
this	-12772
uels	-12773
▁32,	-12774
▁Bou	-12775
▁Dor	-12776
▁Lap	-12777
▁MIA	-12778
▁Myr	-12779
▁Pad	-12780
▁Wel	-12781
▁Yah	-12782
▁bay	-12783
▁dil	-12784
▁liv	-12785
▁phr	-12786
,000-	-12787
arett	-12788
asgow	-12789
bands	-12790
elina	-12791
▁Clay	-12792
▁Fish	-12793
▁Goss	-12794
▁Hope	-12795
▁Lane	-12796
▁Levy	-12797
▁Mays	-12798
▁McCl	-12799
▁Mick	-12800
▁SEAL	-12801
▁Sacr	-12802
▁Take	-12803
▁Vald	-12804
▁Zone	-12805
▁aval	-12806
▁aven	-12807
▁calc	-12808
▁cere	-12809
▁forb	-12810
▁mans	-12811
▁nude	-12812
▁pigs	-12813
▁prol	-12814
▁sequ	-12815
amento	-12816
ardens	-12817
erbach	-12818
janjuk	-12819
stream	-12820
verage	-12821
▁Arena	-12822
▁Bobby	-12823
▁Gabri	-12824
▁Hogan	-12825
▁Jenny	-12826
▁Mario	-12827
▁Parag	-12828
▁Piper	-12829
▁Prius	-12830
▁Ranch	-12831
▁Sloot	-12832
▁Stein	-12833
▁Third	-12834
▁anest	-12835
▁chase	-12836
▁reign	-12837
▁shark	-12838
▁tapes	-12839
atabase	-12840
leading	-12841
mingham	-12842
▁Concer	-12843
▁Heinze	-12844
▁Lionel	-12845
▁Malawi	-12846
▁Rooney	-12847
▁accomp	-12848
▁agrees	-12849
▁authen	-12850
▁cattle	-12851
▁festiv	-12852
▁laptop	-12853
▁medium	-12854
▁ordeal	-12855
▁overfl	-12856
▁philos	-12857
▁pocket	-12858
▁shield	-12859
▁snakes	-12860
▁$50,000	-12861
▁Glasgow	-12862
▁Laurean	-12863
▁bicycle	-12864
▁credits	-12865
▁depends	-12866
▁dignity	-12867
▁lifting	-12868
▁paramil	-12869
▁polling	-12870
▁poorest	-12871
▁revenge	-12872
▁uranium	-12873
▁vitamin	-12874
qualified	-12875
▁Anglican	-12876
▁Election	-12877
▁Incident	-12878
▁Soldiers	-12879
▁Vladimir	-12880
▁advisers	-12881
▁advocacy	-12882
▁capsized	-12883
▁guidance	-12884
▁pandemic	-12885
▁preserve	-12886
▁produces	-12887
▁regarded	-12888
▁relevant	-12889
▁unbeaten	-12890
▁uprising	-12891
▁Demjanjuk	-12892
▁Elsewhere	-12893
▁Relations	-12894
▁Spokesman	-12895
▁accepting	-12896
▁declining	-12897
▁detective	-12898
▁installed	-12899
▁judiciary	-12900
▁paperwork	-12901
▁strangled	-12902
▁withdrawn	-12903
▁compassion	-12904
▁constantly	-12905
▁entreprene	-12906
▁foreigners	-12907
▁prosecuted	-12908
▁recommends	-12909
▁foreclosure	-12910
▁suggestions	-12911
▁dramatically	-12912
▁photographed	-12913
▁concentration	-12914
▁redistributed	-12915
-7	-12916
64	-12917
Up	-12918
USA	-12919
Who	-12920
jab	-12921
nis	-12922
osm	-12923
rac	-12924
▁AK	-12925
▁IA	-12926
▁WS	-12927
Opin	-12928
afar	-12929
aghi	-12930
anth	-12931
asty	-12932
four	-12933
indi	-12934
risk	-12935
spec	-12936
▁$25	-12937
▁34-	-12938
▁350	-12939
▁Beh	-12940
▁Equ	-12941
▁Luk	-12942
▁Noz	-12943
▁Zar	-12944
▁gum	-12945
▁hub	-12946
▁oct	-12947
▁web	-12948
aping	-12949
nered	-12950
parts	-12951
pired	-12952
▁$200	-12953
▁Bear	-12954
▁Cros	-12955
▁Deal	-12956
▁Hung	-12957
▁Joel	-12958
▁Jong	-12959
▁Polk	-12960
▁Ruiz	-12961
▁Sail	-12962
▁Surv	-12963
▁dawn	-12964
▁elev	-12965
▁glam	-12966
▁grid	-12967
▁lawn	-12968
▁pact	-12969
▁pond	-12970
▁pupp	-12971
▁rend	-12972
▁slip	-12973
▁tire	-12974
▁tone	-12975
▁yard	-12976
bridge	-12977
contin	-12978
dollar	-12979
guards	-12980
loaded	-12981
relson	-12982
ternal	-12983
uggage	-12984
umbled	-12985
ussels	-12986
▁2000.	-12987
▁Cohen	-12988
▁Kathy	-12989
▁Novak	-12990
▁Stars	-12991
▁decor	-12992
▁gains	-12993
▁gates	-12994
▁incor	-12995
▁roots	-12996
▁smell	-12997
▁spike	-12998
Opinion	-12999
▁Bergen	-13000
▁Blacks	-13001
▁Conrad	-13002
▁Manila	-13003
▁Sierra	-13004
▁Turner	-13005
▁Tutsis	-13006
▁fossil	-13007
▁halted	-13008
▁incent	-13009
▁litter	-13010
▁nights	-13011
▁ripped	-13012
▁sample	-13013
▁sharks	-13014
▁stance	-13015
▁tradem	-13016
Although	-13017
reatment	-13018
▁Brisman	-13019
▁Conserv	-13020
▁Frances	-13021
▁Hawking	-13022
▁Koreans	-13023
▁Ramadan	-13024
▁Theater	-13025
▁aspects	-13026
▁belongs	-13027
▁fortune	-13028
▁graphic	-13029
▁lasting	-13030
▁oversee	-13031
▁secrets	-13032
▁slammed	-13033
▁stunned	-13034
▁virtual	-13035
▁wickets	-13036
▁zombies	-13037
▁Paraguay	-13038
▁Polanski	-13039
▁Richmond	-13040
▁Smithson	-13041
▁accurate	-13042
▁boarding	-13043
▁deported	-13044
▁dictator	-13045
▁disputes	-13046
▁enjoying	-13047
▁laughing	-13048
▁measured	-13049
▁passport	-13050
▁sickened	-13051
▁Harrelson	-13052
▁accompany	-13053
▁albatross	-13054
▁artifacts	-13055
▁biography	-13056
▁chemicals	-13057
▁homicides	-13058
▁initiated	-13059
▁paparazzi	-13060
▁petroleum	-13061
▁practical	-13062
▁Birmingham	-13063
▁Sacramento	-13064
▁challenged	-13065
▁engagement	-13066
▁expedition	-13067
▁footballer	-13068
▁rebuilding	-13069
▁underwater	-13070
▁communicate	-13071
▁demonstrate	-13072
▁programming	-13073
▁undisclosed	-13074
▁Ticketmaster	-13075
▁accidentally	-13076
▁expectations	-13077
▁occasionally	-13078
▁preparations	-13079
Do	-13080
Mr	-13081
ls	-13082
aha	-13083
cci	-13084
cee	-13085
eff	-13086
ivo	-13087
lis	-13088
▁69	-13089
▁FC	-13090
▁Ot	-13091
▁Ta	-13092
comm	-13093
cred	-13094
drop	-13095
heit	-13096
unta	-13097
yers	-13098
▁18.	-13099
▁900	-13100
▁Bak	-13101
▁Bun	-13102
▁DVD	-13103
▁Ess	-13104
▁Gay	-13105
▁Guy	-13106
▁Hab	-13107
▁Kob	-13108
▁Kos	-13109
▁PGA	-13110
▁duo	-13111
▁hik	-13112
▁rib	-13113
▁voy	-13114
adzic	-13115
aning	-13116
esity	-13117
eward	-13118
itual	-13119
onnie	-13120
remen	-13121
riman	-13122
urcho	-13123
▁100-	-13124
▁1930	-13125
▁Batt	-13126
▁Dani	-13127
▁Fame	-13128
▁Gamb	-13129
▁Init	-13130
▁Joan	-13131
▁Mann	-13132
▁Mars	-13133
▁Muse	-13134
▁barg	-13135
▁bold	-13136
▁brig	-13137
▁bulk	-13138
▁cats	-13139
▁diab	-13140
▁enab	-13141
▁lets	-13142
▁nets	-13143
▁poet	-13144
▁pork	-13145
▁reef	-13146
▁sulf	-13147
▁thus	-13148
▁ugly	-13149
astics	-13150
engine	-13151
illery	-13152
oelina	-13153
porary	-13154
ristol	-13155
▁8,000	-13156
▁Aaron	-13157
▁Cantu	-13158
▁Lohan	-13159
▁Maine	-13160
▁Medal	-13161
▁Motor	-13162
▁Stack	-13163
▁Steyn	-13164
▁Usher	-13165
▁cents	-13166
▁foods	-13167
▁knots	-13168
▁plate	-13169
▁repro	-13170
▁spell	-13171
▁tires	-13172
▁valve	-13173
renheit	-13174
▁12,000	-13175
▁Arrest	-13176
▁Bremen	-13177
▁Cannes	-13178
▁Carrie	-13179
▁Commer	-13180
▁Durcho	-13181
▁Gustav	-13182
▁Jackie	-13183
▁Julian	-13184
▁Myrtle	-13185
▁Patric	-13186
▁Saberi	-13187
▁Wenger	-13188
▁bronze	-13189
▁comply	-13190
▁cookie	-13191
▁crocod	-13192
▁mining	-13193
▁occurs	-13194
▁poster	-13195
▁resent	-13196
▁runner	-13197
▁shrine	-13198
▁tribes	-13199
▁Bristol	-13200
▁Charity	-13201
▁Francis	-13202
▁Nozette	-13203
▁Panetta	-13204
▁Persian	-13205
▁Ricardo	-13206
▁Romania	-13207
▁athlete	-13208
▁bullets	-13209
▁feeding	-13210
▁filling	-13211
▁jumping	-13212
▁lawless	-13213
▁leveled	-13214
▁luggage	-13215
▁portray	-13216
▁secular	-13217
▁smashed	-13218
▁suspend	-13219
▁toddler	-13220
▁welfare	-13221
▁Bolivian	-13222
▁Fighting	-13223
▁Industry	-13224
▁Marriott	-13225
▁Marshals	-13226
▁Petraeus	-13227
▁centered	-13228
▁disagree	-13229
▁drilling	-13230
▁imported	-13231
▁precious	-13232
▁respects	-13233
▁retained	-13234
▁stealing	-13235
▁Antarctic	-13236
▁Frenchman	-13237
▁Tarantino	-13238
▁Ukrainian	-13239
▁classroom	-13240
▁depending	-13241
▁formation	-13242
▁listening	-13243
▁meanwhile	-13244
▁orphanage	-13245
▁subjected	-13246
▁affordable	-13247
▁apologizes	-13248
▁ceremonies	-13249
▁completing	-13250
▁destroying	-13251
▁greenhouse	-13252
▁harassment	-13253
▁indicating	-13254
▁instructor	-13255
▁passionate	-13256
▁protective	-13257
▁reasonable	-13258
▁regardless	-13259
▁strengthen	-13260
▁substantial	-13261
▁surrendered	-13262
▁sustainable	-13263
▁voluntarily	-13264
▁Thanksgiving	-13265
▁administered	-13266
▁confidential	-13267
▁improvements	-13268
▁contamination	-13269
87	-13270
Id	-13271
-10	-13272
Ind	-13273
hak	-13274
hor	-13275
iox	-13276
omp	-13277
sur	-13278
vre	-13279
▁(5	-13280
▁56	-13281
▁Bi	-13282
Jack	-13283
hill	-13284
icia	-13285
onto	-13286
ulty	-13287
vich	-13288
viol	-13289
▁140	-13290
▁33,	-13291
▁447	-13292
▁Ald	-13293
▁Bey	-13294
▁Cot	-13295
▁Din	-13296
▁Dir	-13297
▁Doz	-13298
▁Dup	-13299
▁Hor	-13300
▁Kut	-13301
▁Lar	-13302
▁Lie	-13303
▁Nar	-13304
▁Roc	-13305
▁Taw	-13306
▁Yus	-13307
▁dim	-13308
▁lod	-13309
▁nom	-13310
gener	-13311
isure	-13312
marks	-13313
ocese	-13314
power	-13315
usive	-13316
▁1979	-13317
▁2012	-13318
▁Cann	-13319
▁Chry	-13320
▁Half	-13321
▁Hann	-13322
▁Lanc	-13323
▁Mine	-13324
▁Prim	-13325
▁Rest	-13326
▁Sche	-13327
▁Tuck	-13328
▁Wink	-13329
▁acad	-13330
▁cann	-13331
▁core	-13332
▁dorm	-13333
▁irre	-13334
▁maln	-13335
▁naut	-13336
▁pure	-13337
▁wage	-13338
Balawi	-13339
Please	-13340
asting	-13341
everly	-13342
iments	-13343
inness	-13344
izarre	-13345
▁Cairo	-13346
▁Chest	-13347
▁Eagle	-13348
▁Early	-13349
▁Kerry	-13350
▁MIAMI	-13351
▁Neigh	-13352
▁Winds	-13353
▁Wyeth	-13354
▁crude	-13355
▁dairy	-13356
▁excav	-13357
▁forum	-13358
▁gonna	-13359
▁lodge	-13360
▁recre	-13361
▁ruins	-13362
▁tribe	-13363
▁wider	-13364
▁woods	-13365
Michael	-13366
iciency	-13367
patrick	-13368
through	-13369
▁Anchor	-13370
▁Duncan	-13371
▁Engine	-13372
▁Hollow	-13373
▁McCorm	-13374
▁Medina	-13375
▁Oxford	-13376
▁System	-13377
▁Terror	-13378
▁Thirty	-13379
▁accuse	-13380
▁branch	-13381
▁buyers	-13382
▁hatred	-13383
▁invent	-13384
▁pistol	-13385
▁unlike	-13386
Everyone	-13387
iscrimin	-13388
▁Denmark	-13389
▁Forrest	-13390
▁Robinho	-13391
▁Rolling	-13392
▁Sandler	-13393
▁Tonight	-13394
▁abusing	-13395
▁amnesty	-13396
▁cancell	-13397
▁devoted	-13398
▁explore	-13399
▁fantasy	-13400
▁gallons	-13401
▁reacted	-13402
▁shipped	-13403
▁singles	-13404
▁thunder	-13405
▁trigger	-13406
ationally	-13407
iferation	-13408
▁Chestnut	-13409
▁Confeder	-13410
▁Filipino	-13411
▁Russians	-13412
▁Sciences	-13413
▁attacker	-13414
▁bleeding	-13415
▁checking	-13416
▁detected	-13417
▁holidays	-13418
▁horrible	-13419
▁juvenile	-13420
▁mistaken	-13421
▁nautical	-13422
▁overdose	-13423
▁promoted	-13424
▁siblings	-13425
▁stopping	-13426
▁stranger	-13427
▁timeline	-13428
▁weakened	-13429
▁wildfire	-13430
▁Coalition	-13431
▁Transport	-13432
▁addresses	-13433
▁breakdown	-13434
▁defensive	-13435
▁dependent	-13436
▁economies	-13437
▁efficient	-13438
▁electoral	-13439
▁filmmaker	-13440
▁guerrilla	-13441
▁institute	-13442
▁murdering	-13443
▁poisoning	-13444
▁portrayed	-13445
▁pregnancy	-13446
▁replacing	-13447
▁stationed	-13448
▁supporter	-13449
▁Kilpatrick	-13450
▁Lauterbach	-13451
▁Stonehenge	-13452
▁addressing	-13453
▁airstrikes	-13454
▁attraction	-13455
▁directions	-13456
▁discharged	-13457
▁surprising	-13458
▁Smithsonian	-13459
▁dogfighting	-13460
▁earthquakes	-13461
▁willingness	-13462
▁assassinated	-13463
▁intimidation	-13464
▁requirements	-13465
▁technologies	-13466
▁welterweight	-13467
▁inappropriate	-13468
Sm	-13469
TN	-13470
bot	-13471
fee	-13472
gie	-13473
ovo	-13474
umi	-13475
whe	-13476
▁PS	-13477
▁Si	-13478
AIDS	-13479
adow	-13480
anan	-13481
cuff	-13482
duty	-13483
feit	-13484
gets	-13485
torn	-13486
▁16.	-13487
▁33-	-13488
▁Cov	-13489
▁Liu	-13490
▁McN	-13491
▁Sid	-13492
▁Sou	-13493
▁Tas	-13494
▁Tus	-13495
▁Zur	-13496
▁bik	-13497
▁exh	-13498
▁hem	-13499
abani	-13500
appro	-13501
awalp	-13502
bucks	-13503
check	-13504
elsen	-13505
luded	-13506
onder	-13507
orted	-13508
ospel	-13509
ucked	-13510
ungle	-13511
▁$300	-13512
▁2011	-13513
▁Baja	-13514
▁Ches	-13515
▁Fars	-13516
▁Karr	-13517
▁Ming	-13518
▁Ring	-13519
▁Shel	-13520
▁Shen	-13521
▁Stef	-13522
▁Tren	-13523
▁Trin	-13524
▁Urug	-13525
▁clan	-13526
▁cord	-13527
▁dock	-13528
▁gays	-13529
▁genu	-13530
▁hoax	-13531
▁item	-13532
▁root	-13533
▁sang	-13534
▁sank	-13535
aments	-13536
owners	-13537
smouth	-13538
uentin	-13539
▁1998,	-13540
▁Armen	-13541
▁Blige	-13542
▁Gatti	-13543
▁Heart	-13544
▁Istan	-13545
▁KABUL	-13546
▁Lapin	-13547
▁Marco	-13548
▁PARIS	-13549
▁Saint	-13550
▁Tevez	-13551
▁Tommy	-13552
▁Train	-13553
▁Villa	-13554
▁cyber	-13555
▁dolph	-13556
▁frame	-13557
▁guilt	-13558
▁joins	-13559
▁joked	-13560
▁meter	-13561
▁panda	-13562
▁stems	-13563
itaries	-13564
regular	-13565
▁80,000	-13566
▁Barnes	-13567
▁Drexel	-13568
▁Fellow	-13569
▁Legend	-13570
▁Online	-13571
▁Rawalp	-13572
▁Resort	-13573
▁Sebast	-13574
▁Should	-13575
▁Walker	-13576
▁Zurich	-13577
▁advers	-13578
▁boasts	-13579
▁fueled	-13580
▁hardly	-13581
▁infect	-13582
▁jurisd	-13583
▁liquid	-13584
▁margin	-13585
▁panels	-13586
▁refers	-13587
▁robbed	-13588
▁rolled	-13589
▁shower	-13590
▁slated	-13591
▁titled	-13592
▁trophy	-13593
aturally	-13594
laughter	-13595
▁Beverly	-13596
▁Charges	-13597
▁Donovan	-13598
▁Everton	-13599
▁Shortly	-13600
▁Teacher	-13601
▁Timothy	-13602
▁Toronto	-13603
▁Uruguay	-13604
▁corrupt	-13605
▁decides	-13606
▁endured	-13607
▁equally	-13608
▁farming	-13609
▁gesture	-13610
▁liberal	-13611
▁orphans	-13612
▁paramed	-13613
▁rampage	-13614
▁refuses	-13615
▁repairs	-13616
▁segment	-13617
▁toppled	-13618
▁Holloway	-13619
▁Istanbul	-13620
▁Karadzic	-13621
▁Sharpton	-13622
▁audition	-13623
▁delicate	-13624
▁escorted	-13625
▁maritime	-13626
▁persuade	-13627
▁reviewed	-13628
▁stemming	-13629
▁Congolese	-13630
▁Hispanics	-13631
▁Rajoelina	-13632
▁adventure	-13633
▁centuries	-13634
▁directing	-13635
▁extremist	-13636
▁intervene	-13637
▁isolation	-13638
▁mortality	-13639
▁oversight	-13640
▁permitted	-13641
▁populated	-13642
▁reduction	-13643
▁satisfied	-13644
▁virtually	-13645
▁Correspond	-13646
▁Fahrenheit	-13647
▁Rawalpindi	-13648
▁Television	-13649
▁guidelines	-13650
▁heightened	-13651
▁lieutenant	-13652
▁objections	-13653
▁operatives	-13654
▁performers	-13655
▁practicing	-13656
▁separation	-13657
▁substances	-13658
▁transcript	-13659
▁tremendous	-13660
▁Forecasters	-13661
▁electronics	-13662
▁implemented	-13663
▁maintaining	-13664
▁quarterback	-13665
▁transmission	-13666
▁disappointing	-13667
-9	-13668
26	-13669
38	-13670
86	-13671
:4	-13672
By	-13673
Cl	-13674
PF	-13675
330	-13676
ARE	-13677
edy	-13678
fam	-13679
may	-13680
oum	-13681
pre	-13682
▁91	-13683
▁Aj	-13684
▁EW	-13685
▁Eb	-13686
▁Nk	-13687
▁Oz	-13688
▁RA	-13689
Idol	-13690
Iraq	-13691
John	-13692
apag	-13693
arra	-13694
arth	-13695
aven	-13696
etes	-13697
face	-13698
gang	-13699
have	-13700
herd	-13701
hige	-13702
hunt	-13703
ilyn	-13704
kind	-13705
many	-13706
rary	-13707
rift	-13708
sler	-13709
tiac	-13710
uddy	-13711
wana	-13712
▁$40	-13713
▁13.	-13714
▁26.	-13715
▁ATF	-13716
▁Aus	-13717
▁Ern	-13718
▁Fly	-13719
▁Hak	-13720
▁IOC	-13721
▁Inz	-13722
▁Kyr	-13723
▁Mey	-13724
▁Nab	-13725
▁Non	-13726
▁Pur	-13727
▁Sah	-13728
▁Vod	-13729
▁WFP	-13730
▁Wes	-13731
▁bot	-13732
▁fet	-13733
▁lap	-13734
▁lav	-13735
▁sau	-13736
▁sne	-13737
1,000	-13738
Their	-13739
acker	-13740
agued	-13741
armac	-13742
books	-13743
ensen	-13744
every	-13745
ottir	-13746
ounce	-13747
▁1984	-13748
▁Bass	-13749
▁Bomb	-13750
▁Bots	-13751
▁Cret	-13752
▁Finn	-13753
▁Hoff	-13754
▁Holl	-13755
▁Mult	-13756
▁NYPD	-13757
▁Nuri	-13758
▁Pete	-13759
▁Yous	-13760
▁caut	-13761
▁fool	-13762
▁haul	-13763
▁heal	-13764
▁oath	-13765
▁oral	-13766
▁rage	-13767
▁ward	-13768
▁woes	-13769
apping	-13770
graded	-13771
headed	-13772
ittent	-13773
orence	-13774
rified	-13775
wealth	-13776
▁Final	-13777
▁Funes	-13778
▁Hague	-13779
▁Logan	-13780
▁McAll	-13781
▁Point	-13782
▁Ricky	-13783
▁Riley	-13784
▁Soder	-13785
▁Sonia	-13786
▁Worth	-13787
▁accla	-13788
▁arena	-13789
▁chart	-13790
▁flock	-13791
▁hepat	-13792
▁indec	-13793
▁langu	-13794
▁risen	-13795
▁scare	-13796
▁sting	-13797
imeters	-13798
manpour	-13799
ocolate	-13800
▁Inside	-13801
▁Lawyer	-13802
▁Pierre	-13803
▁Punjab	-13804
▁Savoie	-13805
▁Sigurd	-13806
▁Summit	-13807
▁Termin	-13808
▁Valent	-13809
▁Walter	-13810
▁charts	-13811
▁dancer	-13812
▁donors	-13813
▁filmed	-13814
▁opener	-13815
▁proven	-13816
▁reopen	-13817
▁rifles	-13818
▁robust	-13819
▁sights	-13820
▁stream	-13821
▁submer	-13822
▁washed	-13823
▁wishes	-13824
▁Alexand	-13825
▁Condole	-13826
▁Fossett	-13827
▁Funeral	-13828
▁InStyle	-13829
▁Karachi	-13830
▁Merhige	-13831
▁Sampras	-13832
▁Schalke	-13833
▁Sources	-13834
▁Uyghurs	-13835
▁Whether	-13836
▁banking	-13837
▁context	-13838
▁convert	-13839
▁defined	-13840
▁enforce	-13841
▁grocery	-13842
▁reaches	-13843
▁sharply	-13844
▁sponsor	-13845
▁venture	-13846
▁Brussels	-13847
▁Talabani	-13848
▁choosing	-13849
▁convince	-13850
▁diabetes	-13851
▁emotions	-13852
▁factions	-13853
▁founding	-13854
▁heritage	-13855
▁horrific	-13856
▁Democracy	-13857
▁Marseille	-13858
▁Starbucks	-13859
▁brilliant	-13860
▁delighted	-13861
▁eliminate	-13862
▁exchanged	-13863
▁hepatitis	-13864
▁insurgent	-13865
▁privilege	-13866
▁projected	-13867
▁publisher	-13868
▁strengthe	-13869
▁technique	-13870
▁unrelated	-13871
▁Opposition	-13872
▁Revolution	-13873
▁agreements	-13874
▁containers	-13875
▁playground	-13876
▁supervisor	-13877
▁Journalists	-13878
▁counterpart	-13879
▁fundraising	-13880
▁ingredients	-13881
▁kidnappings	-13882
▁obligations	-13883
▁prestigious	-13884
▁prostitutes	-13885
▁understands	-13886
▁contributing	-13887
▁paramilitary	-13888
▁universities	-13889
▁consideration	-13890
▁photographers	-13891
24	-13892
77	-13893
Ex	-13894
Gu	-13895
PL	-13896
Tr	-13897
hw	-13898
si	-13899
ARS	-13900
Sex	-13901
esa	-13902
flu	-13903
ono	-13904
▁88	-13905
▁99	-13906
▁MD	-13907
acas	-13908
anta	-13909
ente	-13910
erie	-13911
ezza	-13912
haul	-13913
ipri	-13914
mare	-13915
ollo	-13916
oubt	-13917
prov	-13918
rows	-13919
some	-13920
take	-13921
walk	-13922
wich	-13923
▁15.	-13924
▁3-1	-13925
▁39,	-13926
▁45-	-13927
▁Agu	-13928
▁Cre	-13929
▁HLN	-13930
▁Hal	-13931
▁IRA	-13932
▁Kyi	-13933
▁Lag	-13934
▁LeB	-13935
▁Lis	-13936
▁Lug	-13937
▁TMZ	-13938
▁Tun	-13939
▁Var	-13940
▁Way	-13941
▁Wer	-13942
▁bio	-13943
▁cel	-13944
▁nep	-13945
▁rab	-13946
▁shy	-13947
▁vib	-13948
alion	-13949
anity	-13950
antha	-13951
aults	-13952
backs	-13953
clear	-13954
enzie	-13955
goers	-13956
henko	-13957
isive	-13958
leine	-13959
organ	-13960
osaur	-13961
ratic	-13962
uting	-13963
▁Bulg	-13964
▁Dubl	-13965
▁Enke	-13966
▁Jail	-13967
▁Jill	-13968
▁Liga	-13969
▁Oliv	-13970
▁Prab	-13971
▁Wife	-13972
▁beds	-13973
▁cafe	-13974
▁chim	-13975
▁coli	-13976
▁fing	-13977
▁flaw	-13978
▁trim	-13979
▁upro	-13980
abilia	-13981
anging	-13982
anners	-13983
endant	-13984
imited	-13985
lected	-13986
should	-13987
uplets	-13988
▁1999.	-13989
▁2011.	-13990
▁Crown	-13991
▁Fifty	-13992
▁Livni	-13993
▁Lloyd	-13994
▁Lucas	-13995
▁Megan	-13996
▁Natal	-13997
▁Nicar	-13998
▁Oxfam	-13999
▁Price	-14000
▁Reese	-14001
▁Ruben	-14002
▁audio	-14003
▁dimin	-14004
▁ideal	-14005
▁intel	-14006
▁maneu	-14007
▁panic	-14008
▁plead	-14009
▁stays	-14010
▁stole	-14011
Tonight	-14012
arettes	-14013
because	-14014
celotti	-14015
claimed	-14016
hakaran	-14017
reement	-14018
workers	-14019
▁25,000	-14020
▁Brooke	-14021
▁Chiefs	-14022
▁Cretan	-14023
▁Design	-14024
▁Dozens	-14025
▁Gloria	-14026
▁Ismail	-14027
▁Johnny	-14028
▁Policy	-14029
▁Screen	-14030
▁Trenor	-14031
▁advise	-14032
▁ancest	-14033
▁caring	-14034
▁consol	-14035
▁engulf	-14036
▁foster	-14037
▁garage	-14038
▁hiring	-14039
▁hybrid	-14040
▁ignore	-14041
▁illust	-14042
▁plaint	-14043
▁rocked	-14044
▁roller	-14045
▁sailor	-14046
▁stupid	-14047
▁update	-14048
▁wheels	-14049
▁Algeria	-14050
▁Attacks	-14051
▁Bahamas	-14052
▁Baptist	-14053
▁Coordin	-14054
▁Helicop	-14055
▁Pressly	-14056
▁Serbian	-14057
▁Stephan	-14058
▁Winkler	-14059
▁barrier	-14060
▁bystand	-14061
▁coaches	-14062
▁condoms	-14063
▁counted	-14064
▁dragged	-14065
▁facilit	-14066
▁invaded	-14067
▁marking	-14068
▁monarch	-14069
▁monsoon	-14070
▁rallies	-14071
▁revised	-14072
▁shouted	-14073
▁touring	-14074
Everybody	-14075
▁$250,000	-14076
▁$500,000	-14077
▁Majority	-14078
▁alleging	-14079
▁altitude	-14080
▁contempl	-14081
▁credible	-14082
▁detainee	-14083
▁engaging	-14084
▁ensuring	-14085
▁freezing	-14086
▁observed	-14087
▁premiere	-14088
▁shocking	-14089
▁staffers	-14090
▁Inspector	-14091
▁Madeleine	-14092
▁consensus	-14093
▁detection	-14094
▁impressed	-14095
▁philosoph	-14096
▁providers	-14097
▁purported	-14098
▁renewable	-14099
▁routinely	-14100
▁smugglers	-14101
▁speculate	-14102
▁threatens	-14103
▁Prosecutor	-14104
▁attractive	-14105
▁describing	-14106
▁dispatcher	-14107
▁homosexual	-14108
▁iReporters	-14109
▁influenced	-14110
▁laboratory	-14111
▁substitute	-14112
▁Condoleezza	-14113
▁Prabhakaran	-14114
▁acknowledge	-14115
▁competitors	-14116
▁complaining	-14117
▁populations	-14118
▁psychiatric	-14119
▁capabilities	-14120
▁consistently	-14121
▁counterparts	-14122
▁deliberately	-14123
▁manslaughter	-14124
▁respectively	-14125
▁quarterfinals	-14126
16	-14127
Am	-14128
DS	-14129
El	-14130
PR	-14131
Mad	-14132
May	-14133
azi	-14134
did	-14135
dri	-14136
eer	-14137
emp	-14138
gov	-14139
len	-14140
new	-14141
via	-14142
▁Pf	-14143
▁Po	-14144
▁et	-14145
aele	-14146
bons	-14147
conn	-14148
enne	-14149
fers	-14150
fuel	-14151
fund	-14152
habi	-14153
opes	-14154
orne	-14155
orus	-14156
wind	-14157
▁101	-14158
▁28-	-14159
▁3-2	-14160
▁Age	-14161
▁Dol	-14162
▁Gut	-14163
▁KBR	-14164
▁Lor	-14165
▁Own	-14166
▁Rid	-14167
▁Use	-14168
▁Viv	-14169
▁Zet	-14170
▁enl	-14171
▁pel	-14172
▁wip	-14173
▁wis	-14174
Enter	-14175
World	-14176
acerb	-14177
acles	-14178
hears	-14179
iffer	-14180
iotti	-14181
izens	-14182
onial	-14183
piece	-14184
print	-14185
produ	-14186
racks	-14187
utral	-14188
▁Bach	-14189
▁Baha	-14190
▁Chev	-14191
▁Gins	-14192
▁Lady	-14193
▁Save	-14194
▁Soon	-14195
▁Unit	-14196
▁coma	-14197
▁encl	-14198
▁jazz	-14199
▁keen	-14200
▁maps	-14201
▁mice	-14202
▁panc	-14203
▁vest	-14204
boards	-14205
ceived	-14206
ennial	-14207
essors	-14208
ifican	-14209
itudes	-14210
onseka	-14211
rowded	-14212
screen	-14213
stable	-14214
umatic	-14215
usting	-14216
▁1995,	-14217
▁Basra	-14218
▁Creat	-14219
▁Falls	-14220
▁Hanna	-14221
▁Jorge	-14222
▁Julie	-14223
▁Keith	-14224
▁Kings	-14225
▁Lines	-14226
▁Locke	-14227
▁Pilot	-14228
▁Porto	-14229
▁Visit	-14230
▁Yusuf	-14231
▁blown	-14232
▁drops	-14233
▁inner	-14234
▁mafia	-14235
▁mines	-14236
▁orbit	-14237
▁prost	-14238
▁rated	-14239
▁rides	-14240
▁skiff	-14241
▁steep	-14242
▁unear	-14243
▁vigil	-14244
ambling	-14245
iprivan	-14246
million	-14247
▁Dublin	-14248
▁Joshua	-14249
▁Levine	-14250
▁Nichol	-14251
▁Recent	-14252
▁Schult	-14253
▁Statue	-14254
▁Syrian	-14255
▁Unlike	-14256
▁Vienna	-14257
▁assert	-14258
▁bombed	-14259
▁brakes	-14260
▁carpet	-14261
▁colors	-14262
▁echoed	-14263
▁edited	-14264
▁hamper	-14265
▁header	-14266
▁insist	-14267
▁intend	-14268
▁ladies	-14269
▁makers	-14270
▁misses	-14271
▁quotes	-14272
▁riders	-14273
▁rubber	-14274
▁syring	-14275
▁Borders	-14276
▁Chester	-14277
▁Details	-14278
▁Fonseka	-14279
▁Gazprom	-14280
▁Holland	-14281
▁Kampala	-14282
▁Lindsay	-14283
▁Maoists	-14284
▁Perhaps	-14285
▁Reserve	-14286
▁amateur	-14287
▁assured	-14288
▁bizarre	-14289
▁blogger	-14290
▁chamber	-14291
▁charred	-14292
▁consent	-14293
▁expense	-14294
▁expired	-14295
▁genetic	-14296
▁issuing	-14297
▁nowhere	-14298
▁onboard	-14299
▁signals	-14300
▁slipped	-14301
▁somehow	-14302
▁thieves	-14303
▁turnout	-14304
▁unnamed	-14305
▁Botswana	-14306
▁Chrysler	-14307
▁Florence	-14308
▁Guardian	-14309
▁Merriman	-14310
▁Mexicans	-14311
▁Patricia	-14312
▁actively	-14313
▁charging	-14314
▁deserves	-14315
▁earnings	-14316
▁entitled	-14317
▁floating	-14318
▁racially	-14319
▁reminded	-14320
▁sandbags	-14321
▁seasonal	-14322
▁taxpayer	-14323
▁vanished	-14324
▁Ancelotti	-14325
▁Anchorage	-14326
▁Henderson	-14327
▁ballistic	-14328
▁disrupted	-14329
▁hijacking	-14330
▁instances	-14331
▁landscape	-14332
▁mechanism	-14333
▁purchases	-14334
▁sectarian	-14335
▁skeptical	-14336
▁trademark	-14337
▁victories	-14338
▁Portsmouth	-14339
▁applicants	-14340
▁approaches	-14341
▁astronauts	-14342
▁dedication	-14343
▁disability	-14344
▁disturbing	-14345
▁evaluation	-14346
▁friendship	-14347
▁laundering	-14348
▁priorities	-14349
▁reiterated	-14350
▁significan	-14351
▁understood	-14352
▁apprehended	-14353
▁extradition	-14354
▁functioning	-14355
▁architecture	-14356
▁transparency	-14357
▁Championships	-14358
▁intentionally	-14359
▁unfortunately	-14360
▁rehabilitation	-14361
▁internationally	-14362
")	-14363
13	-14364
22	-14365
55	-14366
CS	-14367
IF	-14368
IL	-14369
NT	-14370
-17	-14371
EMA	-14372
OME	-14373
arc	-14374
ete	-14375
guy	-14376
hot	-14377
ivu	-14378
omo	-14379
sha	-14380
ubi	-14381
▁61	-14382
▁63	-14383
▁84	-14384
▁Dh	-14385
▁Ef	-14386
▁GA	-14387
Real	-14388
Then	-14389
Zomb	-14390
anee	-14391
anie	-14392
anye	-14393
bala	-14394
elin	-14395
eria	-14396
feeq	-14397
fish	-14398
inic	-14399
iott	-14400
royo	-14401
them	-14402
ules	-14403
ulla	-14404
umin	-14405
▁35,	-14406
▁35-	-14407
▁38,	-14408
▁50,	-14409
▁Eff	-14410
▁Gad	-14411
▁Jal	-14412
▁Kra	-14413
▁Lem	-14414
▁Nur	-14415
▁Paz	-14416
▁Suu	-14417
▁Zap	-14418
▁Zun	-14419
▁gru	-14420
▁sid	-14421
▁tub	-14422
▁vom	-14423
State	-14424
amble	-14425
asted	-14426
cedes	-14427
endra	-14428
hisit	-14429
igent	-14430
inery	-14431
rette	-14432
▁1976	-14433
▁Boys	-14434
▁Cris	-14435
▁Find	-14436
▁Gian	-14437
▁Hain	-14438
▁Keys	-14439
▁Kids	-14440
▁Lugo	-14441
▁Magn	-14442
▁Marx	-14443
▁Opel	-14444
▁Owen	-14445
▁Pick	-14446
▁Puck	-14447
▁Sign	-14448
▁chat	-14449
▁cops	-14450
▁crop	-14451
▁curb	-14452
▁lied	-14453
▁pour	-14454
▁tune	-14455
adhafi	-14456
affetz	-14457
ambers	-14458
aschle	-14459
atched	-14460
ayashi	-14461
extrem	-14462
inkhan	-14463
izards	-14464
keeper	-14465
manned	-14466
school	-14467
▁1991,	-14468
▁2,500	-14469
▁Burma	-14470
▁Cesar	-14471
▁Dhabi	-14472
▁Heavy	-14473
▁Idaho	-14474
▁Intel	-14475
▁Joker	-14476
▁Kasab	-14477
▁Kesse	-14478
▁Monae	-14479
▁Payne	-14480
▁Sasha	-14481
▁Truth	-14482
▁Zetas	-14483
▁cycle	-14484
▁dynam	-14485
▁liked	-14486
▁rider	-14487
▁sheep	-14488
▁spate	-14489
▁splin	-14490
▁teeth	-14491
▁tweet	-14492
▁valid	-14493
actions	-14494
entials	-14495
istrate	-14496
portion	-14497
▁Colgan	-14498
▁Conway	-14499
▁Darwin	-14500
▁Jaycee	-14501
▁Khalil	-14502
▁Kimber	-14503
▁Peanut	-14504
▁Serena	-14505
▁adrift	-14506
▁assure	-14507
▁bribes	-14508
▁chairs	-14509
▁heated	-14510
▁netted	-14511
▁parach	-14512
▁plight	-14513
▁raided	-14514
▁rented	-14515
▁revers	-14516
▁shells	-14517
▁submit	-14518
▁subsid	-14519
▁unsafe	-14520
Monsters	-14521
ampering	-14522
atorship	-14523
▁Abhisit	-14524
▁Cowboys	-14525
▁Croslin	-14526
▁Daschle	-14527
▁Defence	-14528
▁Falluja	-14529
▁Haggard	-14530
▁Liberia	-14531
▁Pontiac	-14532
▁Spector	-14533
▁Tawfeeq	-14534
▁Zelizer	-14535
▁ballots	-14536
▁blessed	-14537
▁cardiac	-14538
▁ceiling	-14539
▁circuit	-14540
▁goodbye	-14541
▁leather	-14542
▁letting	-14543
▁pursuit	-14544
▁subsidi	-14545
▁yelling	-14546
Sometimes	-14547
▁Chaffetz	-14548
▁Ginsburg	-14549
▁Israelis	-14550
▁Margaret	-14551
▁Paterson	-14552
▁airliner	-14553
▁crashing	-14554
▁database	-14555
▁fugitive	-14556
▁handcuff	-14557
▁incoming	-14558
▁merchant	-14559
▁nickname	-14560
▁occupied	-14561
▁patterns	-14562
▁presents	-14563
▁profound	-14564
▁refusing	-14565
▁sections	-14566
▁sorority	-14567
▁takeover	-14568
▁touching	-14569
▁Agreement	-14570
▁Insurance	-14571
▁Militants	-14572
▁countless	-14573
▁disasters	-14574
▁favorites	-14575
▁firefight	-14576
▁irregular	-14577
▁kilograms	-14578
▁privately	-14579
▁recruited	-14580
▁sponsored	-14581
▁strongest	-14582
▁submerged	-14583
▁taxpayers	-14584
▁universal	-14585
▁Supporters	-14586
▁components	-14587
▁difficulty	-14588
▁expressing	-14589
▁innovative	-14590
▁reinstated	-14591
▁ridiculous	-14592
▁Ibrahimovic	-14593
▁confiscated	-14594
▁connections	-14595
▁educational	-14596
▁influential	-14597
▁memorabilia	-14598
▁permanently	-14599
▁sponsorship	-14600
▁concentrated	-14601
▁intervention	-14602
▁psychologist	-14603
▁significance	-14604
▁subsequently	-14605
▁establishment	-14606
▁superintendent	-14607
Go	-14608
US	-14609
aq	-14610
lu	-14611
30,	-14612
900	-14613
Ter	-14614
Why	-14615
inj	-14616
jah	-14617
oko	-14618
ouk	-14619
ugs	-14620
weg	-14621
azon	-14622
heid	-14623
iani	-14624
ilot	-14625
ixar	-14626
link	-14627
main	-14628
mill	-14629
onen	-14630
pack	-14631
plex	-14632
raib	-14633
rect	-14634
size	-14635
unga	-14636
▁1,0	-14637
▁115	-14638
▁228	-14639
▁Amb	-14640
▁Dom	-14641
▁Fed	-14642
▁Haj	-14643
▁Hig	-14644
▁Kah	-14645
▁Oil	-14646
▁Pay	-14647
▁Ple	-14648
▁Pul	-14649
▁Sep	-14650
▁Tea	-14651
▁cab	-14652
▁gig	-14653
▁god	-14654
▁spo	-14655
▁wet	-14656
China	-14657
Islam	-14658
allah	-14659
endum	-14660
ework	-14661
meter	-14662
quila	-14663
raped	-14664
trick	-14665
uebec	-14666
▁Area	-14667
▁Arts	-14668
▁Come	-14669
▁FEMA	-14670
▁Gran	-14671
▁Kall	-14672
▁Lund	-14673
▁Prat	-14674
▁Priv	-14675
▁Sain	-14676
▁Tata	-14677
▁Tina	-14678
▁Wang	-14679
▁bids	-14680
▁clay	-14681
▁dirt	-14682
▁gent	-14683
▁snap	-14684
alling	-14685
forced	-14686
forest	-14687
ippers	-14688
letico	-14689
public	-14690
ranked	-14691
shaped	-14692
waters	-14693
▁7,000	-14694
▁Agent	-14695
▁Alamo	-14696
▁Brawn	-14697
▁Crime	-14698
▁Damas	-14699
▁Event	-14700
▁Girls	-14701
▁Glass	-14702
▁Kanye	-14703
▁Pedro	-14704
▁Rouge	-14705
▁SEALs	-14706
▁Tower	-14707
▁blunt	-14708
▁breat	-14709
▁cream	-14710
▁derby	-14711
▁diarr	-14712
▁embed	-14713
▁manip	-14714
▁pools	-14715
▁releg	-14716
▁slump	-14717
▁snapp	-14718
▁steam	-14719
▁taped	-14720
autions	-14721
brother	-14722
olutely	-14723
▁Aliens	-14724
▁Alvaro	-14725
▁Andrea	-14726
▁Ashura	-14727
▁Briton	-14728
▁Evergl	-14729
▁Ghraib	-14730
▁Having	-14731
▁Jimena	-14732
▁Louvre	-14733
▁Obamas	-14734
▁Series	-14735
▁Source	-14736
▁Werder	-14737
▁Yellow	-14738
▁Zuniga	-14739
▁assume	-14740
▁enjoys	-14741
▁ethics	-14742
▁hammer	-14743
▁hockey	-14744
▁laying	-14745
▁medals	-14746
▁minors	-14747
▁nephew	-14748
▁repeal	-14749
▁sacked	-14750
▁steady	-14751
▁tunnel	-14752
▁winger	-14753
aternity	-14754
▁250,000	-14755
▁500,000	-14756
▁Bradley	-14757
▁Emanuel	-14758
▁Germans	-14759
▁Zinkhan	-14760
▁bolster	-14761
▁chasing	-14762
▁courses	-14763
▁digging	-14764
▁doubled	-14765
▁drowned	-14766
▁dumping	-14767
▁employs	-14768
▁exhibit	-14769
▁faculty	-14770
▁frigate	-14771
▁insight	-14772
▁obesity	-14773
▁opposes	-14774
▁outdoor	-14775
▁plunged	-14776
▁resting	-14777
▁reviews	-14778
▁sadness	-14779
▁shotgun	-14780
▁surpass	-14781
▁torrent	-14782
▁unhappy	-14783
▁utility	-14784
angelical	-14785
criptions	-14786
naissance	-14787
▁Caroline	-14788
▁Mercedes	-14789
▁Previous	-14790
▁absolute	-14791
▁blessing	-14792
▁contents	-14793
▁donation	-14794
▁elephant	-14795
▁farewell	-14796
▁freshman	-14797
▁gunshots	-14798
▁optimism	-14799
▁Brinkmann	-14800
▁Brittanee	-14801
▁Kobayashi	-14802
▁Nicholson	-14803
▁Palestine	-14804
▁animation	-14805
▁attendant	-14806
▁bilateral	-14807
▁crocodile	-14808
▁editorial	-14809
▁functions	-14810
▁injection	-14811
▁languages	-14812
▁octuplets	-14813
▁paralyzed	-14814
▁perfectly	-14815
▁restraint	-14816
▁suppliers	-14817
▁undermine	-14818
▁acceptance	-14819
▁accordance	-14820
▁belongings	-14821
▁collecting	-14822
▁compatriot	-14823
▁organizing	-14824
▁originated	-14825
▁professors	-14826
▁sanitation	-14827
▁institution	-14828
▁precautions	-14829
Entertainment	-14830
▁Humanitarian	-14831
▁disabilities	-14832
▁conservatives	-14833
▁interrogations	-14834
-8	-14835
:0	-14836
LC	-14837
Me	-14838
NL	-14839
SK	-14840
gs	-14841
),"	-14842
ISK	-14843
Mac	-14844
ahu	-14845
bek	-14846
dah	-14847
dep	-14848
lia	-14849
nie	-14850
oft	-14851
oha	-14852
rot	-14853
sub	-14854
tte	-14855
uru	-14856
▁(7	-14857
▁AS	-14858
▁MP	-14859
▁PC	-14860
▁TE	-14861
▁WF	-14862
DRID	-14863
asse	-14864
ders	-14865
eals	-14866
educ	-14867
elam	-14868
izza	-14869
lett	-14870
lord	-14871
omas	-14872
prop	-14873
roid	-14874
rous	-14875
wall	-14876
▁185	-14877
▁45,	-14878
▁47,	-14879
▁Cox	-14880
▁Eug	-14881
▁Ing	-14882
▁Meo	-14883
▁Set	-14884
▁Sev	-14885
▁Soh	-14886
▁anx	-14887
▁lon	-14888
▁org	-14889
▁tob	-14890
▁wax	-14891
Those	-14892
after	-14893
anged	-14894
auder	-14895
cribe	-14896
dogan	-14897
great	-14898
gwick	-14899
kered	-14900
rafts	-14901
raged	-14902
white	-14903
▁Aziz	-14904
▁Boeh	-14905
▁Chan	-14906
▁Cock	-14907
▁Dogs	-14908
▁Fact	-14909
▁Goma	-14910
▁Phys	-14911
▁RISK	-14912
▁Shab	-14913
▁USDA	-14914
▁Were	-14915
▁airs	-14916
▁biod	-14917
▁erad	-14918
▁fren	-14919
▁gown	-14920
▁pipe	-14921
▁rack	-14922
▁trio	-14923
▁vert	-14924
▁wors	-14925
attled	-14926
deeply	-14927
imated	-14928
imeter	-14929
minent	-14930
parent	-14931
umbent	-14932
wegian	-14933
▁1996,	-14934
▁Amber	-14935
▁Anbar	-14936
▁Blues	-14937
▁Brock	-14938
▁Elder	-14939
▁Fiore	-14940
▁Henin	-14941
▁Lower	-14942
▁Massa	-14943
▁Maybe	-14944
▁Model	-14945
▁Olson	-14946
▁Pixar	-14947
▁amend	-14948
▁backs	-14949
▁beats	-14950
▁breed	-14951
[...]
